#include "my_model_data.h"

ai_handle ai_my_model_data_weights_get(void)
{

  AI_ALIGNED(4)
  static const ai_u8 s_my_model_weights[ 187916 ] = {
    0x79, 0xde, 0x3e, 0x3d, 0x5e, 0x7d, 0x93, 0xbd, 0x33, 0x01,
    0xd6, 0x3d, 0xb5, 0x61, 0x16, 0xbd, 0x8f, 0x92, 0x61, 0x3d,
    0x28, 0xa7, 0x44, 0x3d, 0x9a, 0xec, 0xf2, 0xbc, 0x12, 0xf3,
    0xa1, 0x3d, 0x6e, 0x84, 0xad, 0x3d, 0xaf, 0xb4, 0x8d, 0xbd,
    0x07, 0x99, 0x10, 0x3d, 0xf7, 0x7d, 0x7e, 0xbd, 0xec, 0x23,
    0xed, 0x3d, 0x79, 0xde, 0x3e, 0x3d, 0xf7, 0x7d, 0xfe, 0xbd,
    0xb5, 0x61, 0x96, 0x3c, 0xd1, 0xc2, 0xc1, 0x3d, 0xaf, 0xb4,
    0x8d, 0xbd, 0xcb, 0x15, 0xb9, 0x3a, 0x84, 0x38, 0xd0, 0x3d,
    0xb5, 0x61, 0x16, 0x3d, 0x27, 0xb1, 0x00, 0x3e, 0x9a, 0xec,
    0x72, 0xbd, 0xe1, 0xc9, 0xdb, 0xbc, 0x58, 0xd0, 0x8a, 0xbc,
    0xd1, 0xc2, 0xc1, 0xbd, 0x27, 0xb1, 0x00, 0xbe, 0xcb, 0x15,
    0xb9, 0x3d, 0xcb, 0x15, 0xb9, 0xbc, 0x22, 0xfa, 0xbb, 0x3d,
    0xd6, 0x6f, 0x4a, 0x3d, 0xaa, 0x07, 0x85, 0x3d, 0x28, 0xa7,
    0xc4, 0x3d, 0x58, 0xd0, 0x8a, 0xbc, 0x3e, 0x5b, 0xe7, 0xbc,
    0x79, 0xde, 0xbe, 0xbd, 0x9a, 0xec, 0x72, 0xbd, 0xf7, 0x7d,
    0xfe, 0xbc, 0x12, 0xf3, 0x21, 0xbc, 0x12, 0xf3, 0x21, 0xbc,
    0x3e, 0x5b, 0x67, 0x3c, 0x58, 0xd0, 0x8a, 0x3b, 0xaa, 0x07,
    0x05, 0xbd, 0x12, 0xf3, 0x21, 0x3c, 0x3e, 0x5b, 0xe7, 0xbb,
    0xd6, 0x6f, 0xca, 0xbd, 0x58, 0xd0, 0x8a, 0x3b, 0xb5, 0x61,
    0x96, 0x3c, 0xf7, 0x7d, 0xfe, 0xbd, 0x8a, 0xe5, 0xd8, 0x3d,
    0xe1, 0xc9, 0xdb, 0x3d, 0xec, 0x23, 0x6d, 0x3d, 0x53, 0x23,
    0x82, 0x3d, 0x28, 0xa7, 0xc4, 0xbd, 0x28, 0xa7, 0xc4, 0xbc,
    0x8f, 0x92, 0xe1, 0x3d, 0x28, 0xa7, 0xc4, 0x3c, 0x3e, 0x5b,
    0xe7, 0x3b, 0xb5, 0x61, 0x96, 0x3c, 0xba, 0x0e, 0x9f, 0xbd,
    0xaa, 0x07, 0x05, 0x3d, 0xf7, 0x7d, 0x7e, 0x3d, 0xf7, 0x7d,
    0x7e, 0x3c, 0xc5, 0x68, 0xb0, 0xbd, 0x74, 0x31, 0xb6, 0xbd,
    0x28, 0xa7, 0xc4, 0x3d, 0xf7, 0x7d, 0xfe, 0x3c, 0xcb, 0x15,
    0xb9, 0x3d, 0x7f, 0x8b, 0xc7, 0x3d, 0x84, 0x38, 0x50, 0x3c,
    0x07, 0x99, 0x10, 0x3d, 0x63, 0x2a, 0x1c, 0x3d, 0xcb, 0x15,
    0xb9, 0x3a, 0x58, 0xd0, 0x8a, 0xbc, 0xba, 0x0e, 0x9f, 0xbd,
    0xcb, 0x15, 0xb9, 0x3a, 0x12, 0xf3, 0xa1, 0x3c, 0x69, 0xd7,
    0xa4, 0xbd, 0x63, 0x2a, 0x1c, 0x3d, 0x6e, 0x84, 0xad, 0x3c,
    0x63, 0x2a, 0x9c, 0x3d, 0x7e, 0x95, 0x03, 0x3e, 0xec, 0x23,
    0x6d, 0xbd, 0x9a, 0xec, 0xf2, 0xbd, 0x7f, 0x8b, 0xc7, 0xbd,
    0xf7, 0x7d, 0x7e, 0xbd, 0x9a, 0xec, 0x72, 0x3d, 0xba, 0x0e,
    0x9f, 0x3d, 0x58, 0xd0, 0x8a, 0xbc, 0xc5, 0x68, 0xb0, 0x3d,
    0xdc, 0x1c, 0xd3, 0x3d, 0x3e, 0x5b, 0x67, 0x3d, 0x8f, 0x92,
    0xe1, 0xbd, 0x58, 0xd0, 0x0a, 0x3d, 0xec, 0x23, 0x6d, 0xbd,
    0x69, 0xd7, 0xa4, 0x3d, 0xa0, 0x99, 0xfb, 0xbd, 0xd6, 0x6f,
    0xca, 0x3d, 0x9a, 0xec, 0xf2, 0x3d, 0x3e, 0x5b, 0xe7, 0x3b,
    0x58, 0xd0, 0x8a, 0x3d, 0x58, 0xd0, 0x8a, 0xbc, 0x63, 0x2a,
    0x9c, 0x3d, 0xc5, 0x68, 0xb0, 0xbd, 0x95, 0x3f, 0xea, 0x3d,
    0xe1, 0xc9, 0x5b, 0xbd, 0xa0, 0x99, 0xfb, 0x3d, 0x9a, 0xec,
    0x72, 0xbd, 0x63, 0x2a, 0x1c, 0xbd, 0xaa, 0x07, 0x85, 0x3d,
    0x63, 0x2a, 0x1c, 0xbd, 0x3e, 0x5b, 0xe7, 0xbd, 0x5e, 0x7d,
    0x93, 0xbd, 0x58, 0xd0, 0x0a, 0xbd, 0x27, 0xb1, 0x00, 0x3e,
    0xcb, 0x15, 0xb9, 0x3a, 0x3e, 0x5b, 0xe7, 0xbc, 0x69, 0xd7,
    0xa4, 0x3d, 0xcb, 0x15, 0xb9, 0xbc, 0x07, 0x99, 0x10, 0xbd,
    0x95, 0x3f, 0xea, 0xbd, 0xc0, 0xbb, 0x27, 0xbd, 0x79, 0xde,
    0xbe, 0xbd, 0xf7, 0x7d, 0xfe, 0x3d, 0x6e, 0x84, 0xad, 0x3c,
    0x1d, 0x4d, 0x33, 0x3d, 0x5e, 0x7d, 0x93, 0x3d, 0xcb, 0x15,
    0x39, 0x3b, 0xcb, 0x15, 0x39, 0xbb, 0x8f, 0x92, 0xe1, 0xbd,
    0xcb, 0x15, 0xb9, 0x3d, 0xaf, 0xb4, 0x8d, 0x3d, 0x63, 0x2a,
    0x1c, 0xbd, 0x07, 0x99, 0x90, 0x3d, 0xd6, 0x6f, 0xca, 0x3d,
    0x3e, 0x5b, 0x67, 0x3d, 0x69, 0xd7, 0xa4, 0x3d, 0x95, 0x3f,
    0xea, 0x3d, 0xaf, 0xb4, 0x8d, 0x3d, 0xe1, 0xc9, 0xdb, 0x3d,
    0x9a, 0xec, 0xf2, 0x3d, 0x3e, 0x5b, 0x67, 0xbd, 0x0c, 0x46,
    0x99, 0x3d, 0x07, 0x99, 0x10, 0xbd, 0xe1, 0xc9, 0x5b, 0xbd,
    0xcb, 0x15, 0x39, 0x3d, 0x33, 0x01, 0x56, 0x3d, 0x07, 0x99,
    0x90, 0xbd, 0x5e, 0x7d, 0x93, 0xbd, 0x17, 0xa0, 0xaa, 0xbd,
    0x3e, 0x5b, 0x67, 0xbc, 0x33, 0x01, 0x56, 0x3d, 0x58, 0xd0,
    0x0a, 0xbc, 0x8f, 0x92, 0xe1, 0xbd, 0x84, 0x38, 0xd0, 0xbd,
    0x58, 0xd0, 0x8a, 0x3b, 0xf7, 0x7d, 0x7e, 0xbd, 0xec, 0x23,
    0xed, 0xbd, 0x1d, 0x4d, 0x33, 0x3d, 0x49, 0xb5, 0xf8, 0xbd,
    0xcb, 0x15, 0xb9, 0x3a, 0x07, 0x99, 0x90, 0x3d, 0x3e, 0x5b,
    0x67, 0x3d, 0xd1, 0xc2, 0xc1, 0x3d, 0x33, 0x01, 0xd6, 0x3d,
    0x3e, 0x5b, 0xe7, 0x3d, 0x95, 0x3f, 0xea, 0x3d, 0x12, 0xf3,
    0x21, 0x3d, 0xcb, 0x15, 0xb9, 0x3d, 0x79, 0xde, 0x3e, 0x3d,
    0x5e, 0x7d, 0x93, 0x3d, 0x58, 0xd0, 0x0a, 0x3c, 0xf7, 0x7d,
    0x7e, 0xbd, 0x3e, 0x5b, 0xe7, 0x3b, 0xf7, 0x7d, 0x7e, 0xbc,
    0x6e, 0x84, 0xad, 0x3c, 0x5e, 0x7d, 0x93, 0x3d, 0x3e, 0x5b,
    0x67, 0x3d, 0x07, 0x99, 0x10, 0xbd, 0x7f, 0x8b, 0xc7, 0x3d,
    0x3e, 0x5b, 0x67, 0xbd, 0xaa, 0x07, 0x05, 0x3d, 0x9a, 0xec,
    0xf2, 0x3c, 0xf2, 0xd0, 0xf5, 0x3d, 0x9a, 0xec, 0xf2, 0x3c,
    0x79, 0xde, 0xbe, 0xbd, 0x17, 0xa0, 0xaa, 0x3d, 0xcb, 0x15,
    0x39, 0xbc, 0xdc, 0x1c, 0xd3, 0x3d, 0x33, 0x01, 0xd6, 0xbd,
    0x58, 0xd0, 0x8a, 0xbc, 0x58, 0xd0, 0x0a, 0x3d, 0x9a, 0xec,
    0xf2, 0x3c, 0x33, 0x01, 0xd6, 0xbd, 0x38, 0xae, 0xde, 0x3d,
    0xc0, 0xbb, 0xa7, 0xbd, 0x22, 0xfa, 0xbb, 0xbd, 0x58, 0xd0,
    0x8a, 0xbc, 0x49, 0xb5, 0xf8, 0x3d, 0x84, 0x38, 0xd0, 0xbc,
    0xec, 0x23, 0x6d, 0xbd, 0xf7, 0x7d, 0xfe, 0xbd, 0x22, 0xfa,
    0xbb, 0x3d, 0xec, 0x23, 0x6d, 0x3d, 0x9a, 0xec, 0xf2, 0xbc,
    0xc0, 0xbb, 0x27, 0xbd, 0x28, 0xa7, 0xc4, 0xbc, 0x63, 0x2a,
    0x1c, 0xbd, 0x38, 0xae, 0xde, 0xbd, 0x74, 0x31, 0xb6, 0xbd,
    0x49, 0xb5, 0xf8, 0xbd, 0x17, 0xa0, 0xaa, 0xbd, 0xcb, 0x15,
    0xb9, 0x3c, 0x79, 0xde, 0xbe, 0xbd, 0x12, 0xf3, 0x21, 0x3c,
    0x49, 0xb5, 0x78, 0xbd, 0x63, 0x2a, 0x9c, 0x3d, 0x58, 0xd0,
    0x8a, 0xbc, 0xe1, 0xc9, 0x5b, 0x3d, 0xf7, 0x7d, 0xfe, 0x3c,
    0x3e, 0x5b, 0xe7, 0x3d, 0x1d, 0x4d, 0x33, 0xbd, 0xcb, 0x15,
    0xb9, 0xbb, 0x33, 0x01, 0x56, 0x3d, 0xe7, 0x76, 0xe4, 0xbd,
    0x28, 0xa7, 0x44, 0xbd, 0x28, 0xa7, 0xc4, 0xbd, 0x79, 0xde,
    0x3e, 0x3d, 0x2d, 0x54, 0xcd, 0xbd, 0x6e, 0x84, 0x2d, 0xbd,
    0xb5, 0x61, 0x96, 0x3d, 0x43, 0x08, 0xf0, 0x3d, 0xf7, 0x7d,
    0xfe, 0x3c, 0xb5, 0x61, 0x96, 0xbc, 0xf7, 0x7d, 0x7e, 0x3c,
    0xaa, 0x07, 0x85, 0x3d, 0x58, 0xd0, 0x0a, 0x3d, 0x58, 0xd0,
    0x8a, 0x3b, 0x84, 0x38, 0x50, 0xbd, 0x01, 0xec, 0x87, 0xbd,
    0x28, 0xa7, 0xc4, 0xbc, 0xcb, 0x15, 0x39, 0x3d, 0x58, 0xd0,
    0x0a, 0xbc, 0x9a, 0xec, 0xf2, 0x3c, 0x49, 0xb5, 0xf8, 0xbd,
    0x38, 0xae, 0xde, 0xbd, 0x9a, 0xec, 0xf2, 0xbc, 0x3e, 0x5b,
    0xe7, 0xbd, 0x84, 0x38, 0x50, 0x3c, 0xc5, 0x68, 0xb0, 0xbd,
    0xc0, 0xbb, 0xa7, 0xbd, 0x58, 0xd0, 0x8a, 0xbc, 0x12, 0xf3,
    0x21, 0x3d, 0x84, 0x38, 0x50, 0xbc, 0x8a, 0xe5, 0xd8, 0x3d,
    0x3e, 0x5b, 0xe7, 0xbc, 0x58, 0xd0, 0x8a, 0xbd, 0x79, 0xde,
    0xbe, 0x3d, 0x17, 0xa0, 0xaa, 0xbd, 0x3e, 0x5b, 0xe7, 0x3d,
    0xb5, 0x61, 0x96, 0xbc, 0x17, 0xa0, 0xaa, 0x3d, 0x63, 0x2a,
    0x9c, 0xbd, 0xaa, 0x07, 0x05, 0xbe, 0xf7, 0x7d, 0xfe, 0xbc,
    0xe1, 0xc9, 0x5b, 0xbd, 0x2d, 0x5e, 0x09, 0x3e, 0x53, 0x23,
    0x02, 0x3e, 0x5e, 0x7d, 0x93, 0xbd, 0x2d, 0x54, 0xcd, 0x3d,
    0x58, 0xd0, 0x8a, 0xbc, 0x84, 0x38, 0xd0, 0x3c, 0x58, 0xd0,
    0x0a, 0x3c, 0x69, 0xd7, 0xa4, 0xbd, 0xc0, 0xbb, 0xa7, 0xbd,
    0x6e, 0x84, 0x2d, 0x3d, 0xf7, 0x7d, 0xfe, 0x3c, 0x17, 0xa0,
    0xaa, 0x3d, 0xe1, 0xc9, 0xdb, 0x3d, 0xd6, 0x6f, 0x4a, 0xbd,
    0x1d, 0x4d, 0x33, 0x3d, 0xc5, 0x68, 0xb0, 0x3d, 0x07, 0x99,
    0x90, 0x3d, 0xb5, 0x61, 0x96, 0xbc, 0x58, 0xd0, 0x0a, 0x3c,
    0x79, 0xde, 0xbe, 0xbd, 0xd1, 0xc2, 0xc1, 0xbd, 0x58, 0xd0,
    0x8a, 0xbc, 0x17, 0xa0, 0xaa, 0x3d, 0x63, 0x2a, 0x9c, 0x3d,
    0x12, 0xf3, 0xa1, 0x3d, 0xc0, 0xbb, 0xa7, 0xbd, 0x33, 0x01,
    0xd6, 0xbd, 0x3e, 0x5b, 0xe7, 0x3b, 0x63, 0x2a, 0x1c, 0xbd,
    0xe1, 0xc9, 0xdb, 0x3d, 0x43, 0x08, 0xf0, 0xbd, 0xd6, 0x6f,
    0xca, 0xbd, 0xd1, 0xc2, 0xc1, 0x3d, 0x33, 0x01, 0x56, 0xbd,
    0xb5, 0x61, 0x96, 0xbd, 0xcb, 0x15, 0x39, 0x3d, 0xe1, 0xc9,
    0xdb, 0x3c, 0xcb, 0x15, 0x39, 0x3d, 0xf7, 0x7d, 0xfe, 0x3c,
    0x3e, 0x5b, 0x67, 0x3c, 0x58, 0xd0, 0x8a, 0x3b, 0x84, 0x38,
    0xd0, 0x3d, 0xdc, 0x1c, 0xd3, 0x3d, 0x63, 0x2a, 0x9c, 0x3d,
    0xaa, 0x07, 0x85, 0xbd, 0x12, 0xf3, 0xa1, 0x3d, 0x12, 0xf3,
    0x21, 0x3c, 0x53, 0x23, 0x82, 0xbd, 0x28, 0xa7, 0xc4, 0xbd,
    0xcb, 0x15, 0xb9, 0xbb, 0xe1, 0xc9, 0xdb, 0x3c, 0xb5, 0x61,
    0x96, 0xbc, 0xaa, 0x07, 0x05, 0x3e, 0x49, 0xb5, 0x78, 0xbd,
    0x12, 0xf3, 0xa1, 0xbd, 0x53, 0x23, 0x02, 0x3e, 0x95, 0x3f,
    0xea, 0xbd, 0x58, 0xd0, 0x8a, 0x3b, 0x49, 0xb5, 0x78, 0x3d,
    0x74, 0x31, 0xb6, 0x3d, 0x7f, 0x8b, 0xc7, 0xbd, 0xd6, 0x6f,
    0x4a, 0xbd, 0x0c, 0x46, 0x99, 0xbd, 0xcb, 0x15, 0xb9, 0xba,
    0x33, 0x01, 0xd6, 0xbd, 0xc0, 0xbb, 0x27, 0xbd, 0xb5, 0x61,
    0x96, 0xbd, 0x58, 0xd0, 0x0a, 0x3e, 0xec, 0x23, 0x6d, 0xbd,
    0x49, 0xb5, 0xf8, 0x3d, 0xcb, 0x15, 0xb9, 0xbd, 0x28, 0xa7,
    0xc4, 0x3d, 0xe1, 0xc9, 0xdb, 0x3d, 0xf7, 0x7d, 0x7e, 0xbc,
    0xf7, 0x7d, 0x7e, 0x3c, 0x07, 0x99, 0x10, 0xbd, 0xcb, 0x15,
    0x39, 0xbb, 0xa0, 0x99, 0xfb, 0x3d, 0x07, 0x99, 0x10, 0x3d,
    0xec, 0x23, 0x6d, 0x3d, 0x58, 0xd0, 0x8a, 0x3b, 0xcb, 0x15,
    0xb9, 0x3a, 0x63, 0x2a, 0x1c, 0x3d, 0x07, 0x99, 0x90, 0x3d,
    0x3e, 0x5b, 0xe7, 0x3c, 0x63, 0x2a, 0x9c, 0xbd, 0xaa, 0x07,
    0x85, 0x3d, 0x79, 0xde, 0xbe, 0x3d, 0xba, 0x0e, 0x9f, 0x3d,
    0x28, 0xa7, 0xc4, 0x3d, 0xd1, 0xc2, 0xc1, 0xbd, 0x49, 0xb5,
    0xf8, 0x3d, 0x27, 0xb1, 0x00, 0x3e, 0x53, 0x23, 0x82, 0xbd,
    0xf7, 0x7d, 0x7e, 0xbd, 0xf7, 0x7d, 0x7e, 0xbd, 0xd1, 0xc2,
    0xc1, 0x3d, 0xcb, 0x15, 0xb9, 0x3d, 0x58, 0xd0, 0x8a, 0x3b,
    0xdc, 0x1c, 0xd3, 0xbd, 0x22, 0xfa, 0xbb, 0xbd, 0xd6, 0x6f,
    0x4a, 0x3d, 0x12, 0xf3, 0x21, 0x3c, 0xf7, 0x7d, 0xfe, 0x3d,
    0x58, 0xd0, 0x8a, 0x3c, 0xaf, 0xb4, 0x8d, 0x3d, 0x5e, 0x7d,
    0x93, 0x3d, 0x33, 0x01, 0x56, 0x3d, 0x38, 0xae, 0xde, 0x3d,
    0x27, 0xb1, 0x00, 0x3e, 0x33, 0x01, 0xd6, 0xbd, 0xdc, 0x1c,
    0xd3, 0xbd, 0xf7, 0x7d, 0x7e, 0xbd, 0xec, 0x23, 0x6d, 0x3d,
    0x12, 0xf3, 0x21, 0xbd, 0x28, 0xa7, 0xc4, 0x3c, 0x74, 0x31,
    0xb6, 0xbd, 0xaa, 0x07, 0x05, 0x3d, 0xc5, 0x68, 0xb0, 0xbd,
    0x12, 0xf3, 0xa1, 0x3d, 0xdc, 0x1c, 0xd3, 0x3d, 0x3e, 0x5b,
    0x67, 0xbc, 0x58, 0xd0, 0x0a, 0xbd, 0xaf, 0xb4, 0x8d, 0xbd,
    0x12, 0xf3, 0x21, 0x3d, 0x69, 0xd7, 0xa4, 0x3d, 0xaa, 0x07,
    0x05, 0x3d, 0xcb, 0x15, 0x39, 0x3d, 0x3e, 0x5b, 0xe7, 0x3b,
    0xb5, 0x61, 0x96, 0xbc, 0x2d, 0x54, 0xcd, 0x3d, 0x28, 0xa7,
    0xc4, 0xbd, 0x6e, 0x84, 0xad, 0x3d, 0x79, 0xde, 0xbe, 0x3d,
    0xcb, 0x15, 0x39, 0x3b, 0x84, 0x38, 0xd0, 0xbd, 0x58, 0xd0,
    0x0a, 0xbc, 0xf7, 0x7d, 0x7e, 0xbc, 0xc0, 0xbb, 0xa7, 0xbd,
    0xc0, 0xbb, 0x27, 0xbd, 0xf7, 0x7d, 0xfe, 0x3d, 0xaf, 0xb4,
    0x8d, 0xbd, 0x49, 0xb5, 0xf8, 0x3d, 0xcb, 0x15, 0xb9, 0xbb,
    0xc5, 0x68, 0xb0, 0xbd, 0xaa, 0x07, 0x05, 0x3e, 0x74, 0x31,
    0xb6, 0xbd, 0x8f, 0x92, 0x61, 0xbd, 0x53, 0x23, 0x82, 0x3d,
    0x43, 0x08, 0xf0, 0x3d, 0x01, 0xec, 0x87, 0x3d, 0x6e, 0x84,
    0xad, 0x3d, 0x1d, 0x4d, 0xb3, 0xbd, 0xe1, 0xc9, 0x5b, 0xbd,
    0x58, 0xd0, 0x0a, 0x3e, 0x7f, 0x8b, 0xc7, 0x3d, 0x84, 0x38,
    0x50, 0xbd, 0x8f, 0x92, 0xe1, 0x3d, 0x84, 0x42, 0x0c, 0x3e,
    0x49, 0xb5, 0xf8, 0x3d, 0x07, 0x99, 0x90, 0x3d, 0xcb, 0x15,
    0xb9, 0xba, 0x22, 0xfa, 0xbb, 0x3d, 0x95, 0x3f, 0xea, 0x3d,
    0x58, 0xd0, 0x8a, 0xbc, 0x28, 0xa7, 0xc4, 0xbd, 0xd6, 0x6f,
    0x4a, 0xbd, 0xb5, 0x61, 0x16, 0xbd, 0x3e, 0x5b, 0x67, 0xbc,
    0x69, 0xd7, 0xa4, 0xbd, 0x2d, 0x5e, 0x09, 0x3e, 0x58, 0xd0,
    0x8a, 0xbc, 0x9a, 0xec, 0x72, 0x3d, 0xcb, 0x15, 0xb9, 0xbd,
    0xcb, 0x15, 0x39, 0x3c, 0x58, 0xd0, 0x8a, 0x3b, 0x58, 0xd0,
    0x8a, 0x3c, 0xe1, 0xc9, 0xdb, 0xbc, 0x6e, 0x84, 0x2d, 0x3d,
    0xe7, 0x76, 0xe4, 0x3d, 0x9a, 0xec, 0xf2, 0x3c, 0x33, 0x01,
    0xd6, 0xbd, 0x1d, 0x4d, 0x33, 0x3d, 0x12, 0xf3, 0x21, 0x3d,
    0xd6, 0x6f, 0xca, 0xbd, 0xec, 0x23, 0xed, 0x3d, 0x95, 0x3f,
    0xea, 0xbd, 0xec, 0x23, 0x6d, 0x3d, 0x28, 0xa7, 0xc4, 0xbd,
    0x49, 0xb5, 0x78, 0xbd, 0x63, 0x2a, 0x1c, 0xbd, 0x3e, 0x5b,
    0xe7, 0x3d, 0xf7, 0x7d, 0xfe, 0xbd, 0x17, 0xa0, 0xaa, 0x3d,
    0x9a, 0xec, 0xf2, 0x3c, 0xe6, 0x80, 0x20, 0x3e, 0x22, 0xfa,
    0xbb, 0xbd, 0x58, 0xd0, 0x0a, 0x3d, 0xcb, 0x15, 0xb9, 0xbc,
    0xf7, 0x7d, 0x7e, 0x3c, 0x7e, 0x95, 0x03, 0x3e, 0x3e, 0x5b,
    0xe7, 0xbb, 0x1d, 0x4d, 0x33, 0xbd, 0xcb, 0x15, 0x39, 0x3b,
    0x58, 0xd0, 0x8a, 0x3b, 0x6e, 0x84, 0x2d, 0x3d, 0x43, 0x08,
    0xf0, 0x3d, 0x84, 0x38, 0x50, 0xbc, 0x0c, 0x46, 0x99, 0xbd,
    0xcb, 0x15, 0xb9, 0xba, 0x53, 0x23, 0x02, 0x3e, 0x84, 0x38,
    0xd0, 0xbd, 0x89, 0xef, 0x14, 0xbe, 0xaa, 0x07, 0x05, 0xbd,
    0x5e, 0x7d, 0x13, 0x3e, 0x43, 0x08, 0xf0, 0xbd, 0x1d, 0x4d,
    0xb3, 0xbd, 0x12, 0xf3, 0x21, 0xbd, 0x28, 0xa7, 0xc4, 0xbc,
    0x9a, 0xec, 0xf2, 0xbd, 0xcb, 0x15, 0xb9, 0xbc, 0x3e, 0x5b,
    0xe7, 0x3b, 0xdb, 0x26, 0x0f, 0x3e, 0x0c, 0x46, 0x99, 0x3d,
    0x63, 0x2a, 0x9c, 0x3d, 0x5e, 0x7d, 0x93, 0xbd, 0x58, 0xd0,
    0x0a, 0x3c, 0x84, 0x38, 0xd0, 0x3c, 0x84, 0x38, 0x50, 0xbc,
    0x3e, 0x5b, 0xe7, 0xbd, 0x1d, 0x4d, 0xb3, 0xbd, 0x1d, 0x4d,
    0x33, 0xbd, 0xec, 0x23, 0x6d, 0x3d, 0xe1, 0xc9, 0x5b, 0x3d,
    0x84, 0x38, 0x50, 0x3d, 0x12, 0xf3, 0xa1, 0x3c, 0x07, 0x99,
    0x90, 0x3d, 0xb5, 0x61, 0x96, 0xbd, 0x53, 0x23, 0x02, 0xbe,
    0xa0, 0x99, 0xfb, 0x3d, 0x0c, 0x46, 0x99, 0xbd, 0x84, 0x38,
    0xd0, 0x3c, 0xba, 0x0e, 0x9f, 0x3d, 0xf7, 0x7d, 0xfe, 0x3c,
    0x63, 0x2a, 0x9c, 0xbd, 0xaa, 0x07, 0x05, 0x3d, 0x07, 0x99,
    0x90, 0xbd, 0x07, 0x99, 0x10, 0x3e, 0x0c, 0x46, 0x99, 0xbd,
    0x58, 0xd0, 0x8a, 0xbd, 0x8f, 0x92, 0x61, 0x3d, 0x3e, 0x5b,
    0x67, 0x3c, 0x6e, 0x84, 0xad, 0xbd, 0xb5, 0x61, 0x16, 0x3d,
    0xe1, 0xc9, 0xdb, 0x3c, 0x3e, 0x5b, 0xe7, 0xbd, 0xd1, 0xc2,
    0xc1, 0xbd, 0x79, 0xde, 0xbe, 0xbd, 0x84, 0x38, 0xd0, 0x3d,
    0xcb, 0x15, 0x39, 0xbc, 0x9a, 0xec, 0xf2, 0xbc, 0xf7, 0x7d,
    0x7e, 0xbd, 0x33, 0x01, 0x56, 0xbd, 0x5e, 0x7d, 0x93, 0x3d,
    0xe1, 0xc9, 0xdb, 0x3c, 0xe1, 0xc9, 0x5b, 0xbd, 0x79, 0xde,
    0x3e, 0xbd, 0x49, 0xb5, 0xf8, 0xbd, 0x5e, 0x7d, 0x13, 0xbe,
    0xb5, 0x61, 0x96, 0xbc, 0x8a, 0xe5, 0xd8, 0xbd, 0xaf, 0xb4,
    0x0d, 0xbe, 0x12, 0xf3, 0x21, 0x3c, 0x7e, 0x95, 0x03, 0xbe,
    0x63, 0x2a, 0x9c, 0xbd, 0x38, 0xae, 0xde, 0x3d, 0xaa, 0x07,
    0x05, 0x3d, 0xe1, 0xc9, 0xdb, 0x3c, 0xdc, 0x1c, 0xd3, 0x3d,
    0xdc, 0x1c, 0xd3, 0x3d, 0x12, 0xf3, 0xa1, 0x3d, 0x84, 0x38,
    0x50, 0x3d, 0xd6, 0x6f, 0xca, 0x3d, 0x0c, 0x46, 0x99, 0xbd,
    0xb5, 0x61, 0x16, 0x3d, 0x43, 0x08, 0xf0, 0x3d, 0xaf, 0xb4,
    0x8d, 0xbd, 0x74, 0x31, 0xb6, 0x3d, 0x79, 0xde, 0xbe, 0xbd,
    0xe1, 0xc9, 0xdb, 0xbc, 0xb5, 0x61, 0x16, 0xbd, 0x28, 0xa7,
    0xc4, 0x3c, 0x63, 0x2a, 0x9c, 0xbd, 0x9a, 0xec, 0xf2, 0x3c,
    0x79, 0xde, 0x3e, 0x3d, 0xe1, 0xc9, 0xdb, 0x3c, 0x95, 0x3f,
    0xea, 0x3d, 0x2d, 0x54, 0xcd, 0xbd, 0x9a, 0xec, 0x72, 0xbd,
    0x58, 0xd0, 0x8a, 0xbc, 0xcb, 0x15, 0xb9, 0x3d, 0x84, 0x38,
    0xd0, 0xbd, 0x49, 0xb5, 0x78, 0x3d, 0x95, 0x3f, 0xea, 0xbd,
    0xd1, 0xc2, 0xc1, 0xbd, 0x12, 0xf3, 0xa1, 0xbc, 0xa0, 0x99,
    0xfb, 0x3d, 0x95, 0x3f, 0xea, 0xbd, 0x3e, 0x5b, 0xe7, 0xbd,
    0x33, 0x01, 0xd6, 0x3d, 0xe1, 0xc9, 0xdb, 0x3c, 0x53, 0x23,
    0x82, 0x3d, 0x74, 0x31, 0xb6, 0xbd, 0x58, 0xd0, 0x8a, 0x3c,
    0x28, 0xa7, 0xc4, 0xbd, 0x58, 0xd0, 0x0a, 0x3c, 0xf7, 0x7d,
    0xfe, 0xbd, 0xcb, 0x15, 0x39, 0x3d, 0x0c, 0x46, 0x99, 0x3d,
    0x1d, 0x4d, 0x33, 0xbd, 0x12, 0xf3, 0x21, 0xbc, 0xc0, 0xbb,
    0x27, 0xbd, 0x9a, 0xec, 0xf2, 0xbd, 0xf7, 0x7d, 0x7e, 0xbc,
    0x2d, 0x5e, 0x09, 0x3e, 0xe1, 0xc9, 0xdb, 0x3d, 0xd1, 0xc2,
    0xc1, 0xbd, 0x3e, 0x5b, 0xe7, 0x3b, 0xd1, 0xc2, 0xc1, 0xbd,
    0xcb, 0x15, 0xb9, 0x3a, 0x9a, 0xec, 0xf2, 0x3c, 0x07, 0x99,
    0x90, 0xbd, 0x1d, 0x4d, 0xb3, 0xbd, 0x58, 0xd0, 0x8a, 0x3b,
    0xba, 0x0e, 0x9f, 0x3d, 0x53, 0x23, 0x82, 0xbd, 0xe1, 0xc9,
    0xdb, 0x3c, 0x58, 0xd0, 0x8a, 0xbb, 0xaf, 0xb4, 0x8d, 0xbd,
    0x12, 0xf3, 0xa1, 0x3d, 0xd6, 0x6f, 0x4a, 0xbd, 0x28, 0xa7,
    0x44, 0xbd, 0x3e, 0x5b, 0x67, 0x3c, 0x58, 0xd0, 0x0a, 0x3d,
    0x8f, 0x92, 0xe1, 0x3d, 0xf7, 0x7d, 0x7e, 0xbd, 0x84, 0x38,
    0xd0, 0x3c, 0xaf, 0xb4, 0x8d, 0xbd, 0x28, 0xa7, 0x44, 0xbd,
    0x8a, 0xe5, 0xd8, 0x3d, 0xcb, 0x15, 0x39, 0x3c, 0x49, 0xb5,
    0x78, 0xbd, 0xa0, 0x99, 0xfb, 0xbd, 0x79, 0xde, 0x3e, 0x3d,
    0x2d, 0x54, 0xcd, 0x3d, 0x22, 0xfa, 0xbb, 0x3d, 0x17, 0xa0,
    0xaa, 0xbd, 0xcb, 0x15, 0xb9, 0x3a, 0x33, 0x01, 0xd6, 0x3d,
    0x49, 0xb5, 0x78, 0xbd, 0xb5, 0x61, 0x96, 0xbd, 0x22, 0xfa,
    0xbb, 0x3d, 0x28, 0xa7, 0x44, 0x3d, 0x69, 0xd7, 0xa4, 0x3d,
    0x12, 0xf3, 0x21, 0xbc, 0x0c, 0x46, 0x99, 0x3d, 0x38, 0xae,
    0xde, 0xbd, 0x12, 0xf3, 0xa1, 0x3d, 0x2d, 0x5e, 0x09, 0xbe,
    0x6e, 0x84, 0xad, 0xbc, 0xb5, 0x61, 0x96, 0x3c, 0x28, 0xa7,
    0xc4, 0xbd, 0xb5, 0x61, 0x16, 0xbd, 0x6e, 0x84, 0xad, 0x3d,
    0xd6, 0x6f, 0xca, 0x3d, 0x84, 0x38, 0xd0, 0x3c, 0xaa, 0x07,
    0x85, 0x3d, 0xba, 0x0e, 0x9f, 0xbd, 0xf7, 0x7d, 0xfe, 0xbc,
    0x33, 0x01, 0x56, 0x3d, 0xc5, 0x68, 0xb0, 0xbd, 0x79, 0xde,
    0xbe, 0xbd, 0xaa, 0x07, 0x05, 0x3d, 0xec, 0x23, 0x6d, 0xbd,
    0xc5, 0x68, 0xb0, 0x3d, 0xf7, 0x7d, 0x7e, 0xbc, 0x63, 0x2a,
    0x9c, 0xbd, 0x07, 0x99, 0x90, 0x3d, 0x22, 0xfa, 0xbb, 0x3d,
    0x53, 0x23, 0x02, 0xbe, 0xcb, 0x15, 0xb9, 0x3c, 0x63, 0x2a,
    0x1c, 0x3d, 0x84, 0x38, 0x50, 0x3c, 0xdb, 0x26, 0x0f, 0xbe,
    0x12, 0xf3, 0xa1, 0x3d, 0x22, 0xfa, 0xbb, 0xbd, 0xcb, 0x15,
    0x39, 0x3b, 0x6e, 0x84, 0xad, 0xbc, 0xcb, 0x15, 0xb9, 0x3d,
    0x12, 0xf3, 0xa1, 0x3d, 0xaf, 0xb4, 0x8d, 0x3d, 0x8f, 0x92,
    0x61, 0xbd, 0xec, 0x23, 0xed, 0xbd, 0x63, 0x2a, 0x9c, 0x3d,
    0xa0, 0x99, 0xfb, 0x3d, 0x58, 0xd0, 0x8a, 0xbd, 0xc0, 0xbb,
    0xa7, 0x3d, 0x07, 0x99, 0x10, 0x3d, 0x58, 0xd0, 0x8a, 0xbb,
    0xaf, 0xb4, 0x0d, 0x3e, 0x49, 0xb5, 0xf8, 0x3d, 0xe1, 0xc9,
    0x5b, 0x3d, 0x9f, 0xa3, 0x37, 0x3e, 0xdb, 0x26, 0x0f, 0x3e,
    0x8a, 0xe5, 0xd8, 0xbd, 0x84, 0x38, 0xd0, 0xbd, 0xaa, 0x07,
    0x05, 0x3d, 0x58, 0xd0, 0x8a, 0xbb, 0x7e, 0x95, 0x03, 0xbe,
    0xe1, 0xc9, 0xdb, 0x3d, 0x28, 0xa7, 0xc4, 0x3d, 0x58, 0xd0,
    0x0a, 0x3d, 0x9a, 0xec, 0xf2, 0xbd, 0x1d, 0x4d, 0xb3, 0x3d,
    0x58, 0xd0, 0x0a, 0xbd, 0x9a, 0xec, 0xf2, 0xbc, 0x01, 0xec,
    0x07, 0x3e, 0xb5, 0x61, 0x96, 0x3c, 0x58, 0xd0, 0x8a, 0xbd,
    0x84, 0x38, 0x50, 0xbd, 0x2d, 0x54, 0xcd, 0xbd, 0x74, 0x31,
    0xb6, 0x3d, 0x8a, 0xe5, 0xd8, 0x3d, 0xba, 0x0e, 0x9f, 0x3d,
    0x58, 0xd0, 0x0a, 0xbd, 0x79, 0xde, 0x3e, 0xbd, 0x07, 0x99,
    0x90, 0xbd, 0xe1, 0xc9, 0xdb, 0x3c, 0x9a, 0xec, 0xf2, 0x3d,
    0xf7, 0x7d, 0x7e, 0xbc, 0x58, 0xd0, 0x0a, 0xbc, 0x01, 0xec,
    0x07, 0xbe, 0xdc, 0x1c, 0xd3, 0xbd, 0xb5, 0x61, 0x96, 0xbc,
    0x00, 0x00, 0x00, 0x00, 0xe1, 0xc9, 0xdb, 0x3d, 0x74, 0x31,
    0xb6, 0x3d, 0x58, 0xd0, 0x0a, 0xbd, 0x58, 0xd0, 0x8a, 0x3c,
    0xaf, 0xb4, 0x8d, 0xbd, 0xaf, 0xb4, 0x8d, 0x3d, 0x84, 0x38,
    0x50, 0xbc, 0x58, 0xd0, 0x8a, 0x3b, 0x79, 0xde, 0x3e, 0xbd,
    0x49, 0xb5, 0x78, 0xbd, 0x2d, 0x54, 0xcd, 0x3d, 0x84, 0x38,
    0xd0, 0x3d, 0xf2, 0xd0, 0xf5, 0xbd, 0x27, 0xb1, 0x00, 0x3e,
    0x58, 0xd0, 0x8a, 0xbd, 0x3e, 0x5b, 0x67, 0x3d, 0x6e, 0x84,
    0xad, 0xbd, 0x79, 0xde, 0x3e, 0x3d, 0x3e, 0x5b, 0xe7, 0x3b,
    0x84, 0x38, 0x50, 0xbc, 0x12, 0xf3, 0x21, 0x3d, 0xcb, 0x15,
    0xb9, 0xbd, 0x58, 0xd0, 0x0a, 0x3d, 0x9a, 0xec, 0xf2, 0x3d,
    0x9a, 0xec, 0xf2, 0xbc, 0xf2, 0xd0, 0xf5, 0xbd, 0xba, 0x0e,
    0x9f, 0x3d, 0x3e, 0x5b, 0x67, 0x3d, 0xf7, 0x7d, 0xfe, 0x3c,
    0x49, 0xb5, 0xf8, 0xbd, 0x6e, 0x84, 0x2d, 0xbd, 0xaa, 0x07,
    0x05, 0x3d, 0x28, 0xa7, 0xc4, 0xbc, 0x33, 0x01, 0xd6, 0x3d,
    0x43, 0x08, 0xf0, 0x3d, 0x12, 0xf3, 0x21, 0xbc, 0x33, 0x01,
    0xd6, 0xbd, 0x8a, 0xe5, 0xd8, 0xbd, 0xcb, 0x15, 0xb9, 0x3d,
    0x49, 0xb5, 0xf8, 0xbd, 0xc0, 0xbb, 0xa7, 0x3d, 0x58, 0xd0,
    0x8a, 0xbb, 0x12, 0xf3, 0xa1, 0x3c, 0x5e, 0x7d, 0x93, 0x3d,
    0x69, 0xd7, 0xa4, 0xbd, 0x58, 0xd0, 0x0a, 0xbd, 0x8f, 0x92,
    0x61, 0xbd, 0xb5, 0x61, 0x16, 0x3d, 0x58, 0xd0, 0x0a, 0xbd,
    0xdc, 0x1c, 0xd3, 0x3d, 0x28, 0xa7, 0xc4, 0xbc, 0xf2, 0xd0,
    0xf5, 0xbd, 0xaf, 0xb4, 0x8d, 0x3d, 0x28, 0xa7, 0x44, 0xbd,
    0x27, 0xb1, 0x00, 0x3e, 0xcb, 0x15, 0xb9, 0x3c, 0x3e, 0x5b,
    0xe7, 0x3c, 0x3e, 0x5b, 0xe7, 0x3d, 0x58, 0xd0, 0x8a, 0xbb,
    0xa0, 0x99, 0xfb, 0xbd, 0x84, 0x38, 0xd0, 0xbc, 0x69, 0xd7,
    0xa4, 0x3d, 0x6e, 0x84, 0xad, 0xbd, 0xec, 0x23, 0x6d, 0x3d,
    0xec, 0x23, 0x6d, 0xbd, 0x33, 0x01, 0xd6, 0x3d, 0xc0, 0xbb,
    0x27, 0x3d, 0x28, 0xa7, 0x44, 0xbd, 0xe1, 0xc9, 0xdb, 0x3c,
    0xaa, 0x07, 0x05, 0x3e, 0x84, 0x38, 0x50, 0xbd, 0xe1, 0xc9,
    0x5b, 0x3d, 0x8f, 0x92, 0xe1, 0x3d, 0x84, 0x38, 0x50, 0xbd,
    0xc0, 0xbb, 0xa7, 0x3d, 0xb5, 0x61, 0x96, 0xbc, 0x2d, 0x54,
    0xcd, 0x3d, 0x84, 0x38, 0x50, 0xbc, 0x79, 0xde, 0xbe, 0xbd,
    0x3e, 0x5b, 0xe7, 0xbb, 0x01, 0xec, 0x07, 0x3e, 0x00, 0x00,
    0x00, 0x00, 0x8f, 0x92, 0xe1, 0x3d, 0x1d, 0x4d, 0xb3, 0xbd,
    0x7f, 0x8b, 0xc7, 0xbd, 0xc5, 0x68, 0xb0, 0x3d, 0xe7, 0x76,
    0xe4, 0x3d, 0x1d, 0x4d, 0xb3, 0xbd, 0x3e, 0x5b, 0xe7, 0x3d,
    0xb5, 0x61, 0x96, 0xbd, 0xd1, 0xc2, 0xc1, 0x3d, 0x28, 0xa7,
    0xc4, 0xbc, 0x58, 0xd0, 0x0a, 0x3c, 0x69, 0xd7, 0xa4, 0xbd,
    0x12, 0xf3, 0xa1, 0x3d, 0x33, 0x01, 0x56, 0x3d, 0xa0, 0x99,
    0xfb, 0xbd, 0x12, 0xf3, 0x21, 0x3c, 0x8f, 0x92, 0xe1, 0xbd,
    0x84, 0x38, 0x50, 0xbd, 0x43, 0x08, 0xf0, 0xbd, 0x3e, 0x5b,
    0x67, 0xbd, 0x58, 0xd0, 0x0a, 0x3d, 0x3e, 0x5b, 0x67, 0xbd,
    0x84, 0x38, 0x50, 0x3d, 0x69, 0xd7, 0xa4, 0x3d, 0x22, 0xfa,
    0xbb, 0xbd, 0x58, 0xd0, 0x0a, 0x3c, 0xc0, 0xbb, 0x27, 0x3d,
    0xec, 0x23, 0x6d, 0x3d, 0x3e, 0x5b, 0x67, 0xbd, 0x79, 0xde,
    0xbe, 0xbd, 0xd6, 0x6f, 0x4a, 0xbd, 0x49, 0xb5, 0xf8, 0xbd,
    0x28, 0xa7, 0x44, 0xbd, 0x3e, 0x5b, 0xe7, 0xbd, 0x9a, 0xec,
    0x72, 0x3d, 0x58, 0xd0, 0x8a, 0xbd, 0x6e, 0x84, 0x2d, 0xbd,
    0x84, 0x38, 0xd0, 0x3d, 0xcb, 0x15, 0xb9, 0x3d, 0xb5, 0x61,
    0x16, 0x3d, 0x84, 0x38, 0x50, 0xbc, 0x95, 0x3f, 0xea, 0x3d,
    0xd6, 0x6f, 0x4a, 0x3d, 0x5e, 0x7d, 0x93, 0xbd, 0x63, 0x2a,
    0x1c, 0xbd, 0xb5, 0x61, 0x96, 0x3c, 0x01, 0xec, 0x07, 0x3e,
    0x12, 0xf3, 0xa1, 0x3d, 0x2d, 0x5e, 0x09, 0xbe, 0x79, 0xde,
    0x3e, 0x3d, 0x6e, 0x84, 0xad, 0x3c, 0x9a, 0xec, 0xf2, 0xbc,
    0xcb, 0x15, 0xb9, 0xba, 0xd5, 0x79, 0x06, 0xbe, 0xf7, 0x7d,
    0xfe, 0xbc, 0x84, 0x38, 0xd0, 0xbd, 0xb5, 0x61, 0x96, 0x3d,
    0xec, 0x23, 0x6d, 0x3d, 0x6e, 0x84, 0x2d, 0x3d, 0xcb, 0x15,
    0x39, 0xbc, 0x79, 0xde, 0x3e, 0x3d, 0x38, 0xae, 0xde, 0x3d,
    0x84, 0x38, 0x50, 0xbd, 0x58, 0xd0, 0x0a, 0x3c, 0x49, 0xb5,
    0x78, 0xbd, 0xcb, 0x15, 0xb9, 0x3d, 0xf7, 0x7d, 0x7e, 0xbc,
    0x58, 0xd0, 0x0a, 0xbd, 0x12, 0xf3, 0x21, 0xbd, 0x3e, 0x5b,
    0x67, 0x3c, 0x12, 0xf3, 0x21, 0xbd, 0x9a, 0xec, 0xf2, 0xbc,
    0x58, 0xd0, 0x0a, 0x3d, 0x58, 0xd0, 0x8a, 0x3c, 0x33, 0x01,
    0xd6, 0x3d, 0x12, 0xf3, 0xa1, 0x3c, 0x84, 0x38, 0xd0, 0x3c,
    0x49, 0xb5, 0xf8, 0xbd, 0x84, 0x38, 0xd0, 0x3c, 0xcb, 0x15,
    0xb9, 0xbc, 0xa0, 0x99, 0xfb, 0xbd, 0x3e, 0x5b, 0xe7, 0xbc,
    0x8a, 0xe5, 0xd8, 0xbd, 0xd6, 0x6f, 0x4a, 0xbd, 0x28, 0xa7,
    0x44, 0xbd, 0xe1, 0xc9, 0x5b, 0xbd, 0x07, 0x99, 0x10, 0x3d,
    0x12, 0xf3, 0x21, 0x3c, 0x22, 0xfa, 0xbb, 0x3d, 0x9a, 0xec,
    0xf2, 0x3d, 0x12, 0xf3, 0x21, 0x3c, 0x1d, 0x4d, 0x33, 0xbd,
    0x17, 0xa0, 0xaa, 0x3d, 0x12, 0xf3, 0x21, 0xbd, 0x49, 0xb5,
    0xf8, 0x3d, 0x6e, 0x84, 0xad, 0x3d, 0x17, 0xa0, 0xaa, 0xbd,
    0x9a, 0xec, 0xf2, 0xbc, 0xe7, 0x76, 0xe4, 0x3d, 0x28, 0xa7,
    0xc4, 0xbd, 0xf7, 0x7d, 0xfe, 0xbd, 0x9a, 0xec, 0xf2, 0x3c,
    0x1d, 0x4d, 0x33, 0x3d, 0x17, 0xa0, 0xaa, 0xbd, 0xec, 0x23,
    0xed, 0xbd, 0x12, 0xf3, 0x21, 0x3d, 0x79, 0xde, 0x3e, 0x3d,
    0x7e, 0x95, 0x03, 0xbe, 0x58, 0xd0, 0x0a, 0xbc, 0x12, 0xf3,
    0x21, 0x3d, 0x28, 0xa7, 0xc4, 0x3d, 0x28, 0xa7, 0xc4, 0xbd,
    0xaa, 0x07, 0x05, 0x3e, 0x8f, 0x92, 0xe1, 0x3d, 0x5e, 0x7d,
    0x93, 0xbd, 0xcb, 0x15, 0x39, 0x3b, 0xd5, 0x79, 0x06, 0x3e,
    0x12, 0xf3, 0xa1, 0x3d, 0xec, 0x23, 0x6d, 0x3d, 0xec, 0x23,
    0xed, 0x3d, 0x84, 0x38, 0xd0, 0x3d, 0x28, 0xa7, 0xc4, 0xbd,
    0xb5, 0x61, 0x96, 0xbc, 0xc0, 0xbb, 0xa7, 0x3d, 0x01, 0xec,
    0x87, 0xbd, 0x9a, 0xec, 0xf2, 0xbc, 0xcb, 0x15, 0x39, 0xbd,
    0xaa, 0x07, 0x05, 0xbd, 0x1d, 0x4d, 0x33, 0x3d, 0x9a, 0xec,
    0xf2, 0x3c, 0x58, 0xd0, 0x0a, 0x3c, 0xf7, 0x7d, 0xfe, 0xbc,
    0xcb, 0x15, 0x39, 0xbd, 0x12, 0xf3, 0xa1, 0x3c, 0x22, 0xfa,
    0xbb, 0xbd, 0x63, 0x2a, 0x9c, 0x3d, 0xec, 0x23, 0xed, 0x3d,
    0x7e, 0x95, 0x03, 0x3e, 0xdc, 0x1c, 0xd3, 0xbd, 0x43, 0x08,
    0xf0, 0x3d, 0x00, 0x00, 0x00, 0x00, 0x8f, 0x92, 0x61, 0xbd,
    0x22, 0xfa, 0xbb, 0x3d, 0x63, 0x2a, 0x1c, 0xbd, 0xec, 0x23,
    0x6d, 0x3d, 0x7f, 0x8b, 0xc7, 0x3d, 0xcb, 0x15, 0x39, 0xbb,
    0x74, 0x31, 0xb6, 0x3d, 0x33, 0x01, 0x56, 0xbd, 0x9a, 0xec,
    0xf2, 0xbd, 0x6e, 0x84, 0x2d, 0x3d, 0x58, 0xd0, 0x8a, 0xbc,
    0x79, 0xde, 0xbe, 0x3d, 0xf7, 0x7d, 0xfe, 0xbd, 0x1d, 0x4d,
    0x33, 0x3d, 0x3e, 0x5b, 0xe7, 0xbc, 0x79, 0xde, 0xbe, 0x3d,
    0x22, 0xfa, 0xbb, 0x3d, 0x53, 0x23, 0x82, 0xbd, 0xaa, 0x07,
    0x85, 0x3d, 0x12, 0xf3, 0x21, 0xbd, 0x53, 0x23, 0x82, 0xbd,
    0x7e, 0x95, 0x03, 0xbe, 0x43, 0x08, 0xf0, 0xbd, 0x49, 0xb5,
    0xf8, 0x3d, 0x6e, 0x84, 0x2d, 0x3d, 0x07, 0x99, 0x10, 0xbd,
    0xf7, 0x7d, 0x7e, 0x3d, 0xcb, 0x15, 0xb9, 0x3d, 0x12, 0xf3,
    0x21, 0xbd, 0xcb, 0x15, 0x39, 0x3d, 0x9a, 0xec, 0xf2, 0x3d,
    0x07, 0x99, 0x10, 0xbd, 0xcb, 0x15, 0x39, 0xbc, 0xec, 0x23,
    0x6d, 0x3d, 0x53, 0x23, 0x82, 0xbd, 0x84, 0x38, 0xd0, 0xbd,
    0x58, 0xd0, 0x0a, 0xbd, 0x74, 0x31, 0xb6, 0xbd, 0xe1, 0xc9,
    0xdb, 0x3c, 0xd6, 0x6f, 0x4a, 0x3d, 0x8f, 0x92, 0x61, 0xbd,
    0x6e, 0x84, 0xad, 0x3c, 0xc0, 0xbb, 0x27, 0xbd, 0x79, 0xde,
    0x3e, 0x3d, 0xec, 0x23, 0x6d, 0xbd, 0xb5, 0x61, 0x96, 0x3d,
    0x33, 0x01, 0xd6, 0x3d, 0x95, 0x3f, 0xea, 0x3d, 0x1d, 0x4d,
    0x33, 0x3d, 0x84, 0x38, 0x50, 0x3c, 0x3e, 0x5b, 0xe7, 0xbc,
    0xb5, 0x61, 0x16, 0x3d, 0xcb, 0x15, 0xb9, 0x3d, 0xb5, 0x61,
    0x16, 0x3d, 0xcb, 0x15, 0xb9, 0xbd, 0x3e, 0x5b, 0x67, 0x3d,
    0xaa, 0x07, 0x05, 0xbd, 0x69, 0xd7, 0xa4, 0xbd, 0x01, 0xec,
    0x87, 0xbd, 0x12, 0xf3, 0x21, 0xbd, 0x58, 0xd0, 0x0a, 0x3c,
    0xcb, 0x15, 0xb9, 0x3b, 0x53, 0x23, 0x02, 0x3e, 0x33, 0x01,
    0x56, 0xbd, 0x28, 0xa7, 0xc4, 0xbc, 0xaa, 0x07, 0x85, 0x3d,
    0x79, 0xde, 0x3e, 0xbd, 0x84, 0x38, 0x50, 0xbc, 0x58, 0xd0,
    0x0a, 0xbc, 0x6e, 0x84, 0x2d, 0xbd, 0x3e, 0x5b, 0xe7, 0xbc,
    0x1d, 0x4d, 0x33, 0x3d, 0xcb, 0x15, 0xb9, 0xbc, 0x58, 0xd0,
    0x0a, 0xbd, 0x3e, 0x5b, 0x67, 0x3c, 0x12, 0xf3, 0xa1, 0x3c,
    0x84, 0x38, 0x50, 0xbc, 0xe1, 0xc9, 0xdb, 0x3c, 0x8f, 0x92,
    0x61, 0xbd, 0x6e, 0x84, 0xad, 0xbc, 0xcb, 0x15, 0xb9, 0xbb,
    0x12, 0xf3, 0xa1, 0x3d, 0xb5, 0x61, 0x96, 0x3d, 0x8f, 0x92,
    0x61, 0x3d, 0x6e, 0x84, 0x2d, 0x3d, 0x63, 0x2a, 0x1c, 0xbd,
    0x3e, 0x5b, 0xe7, 0x3c, 0x84, 0x42, 0x0c, 0x3e, 0xba, 0x0e,
    0x9f, 0x3d, 0x58, 0xd0, 0x0a, 0xbd, 0xc0, 0xbb, 0x27, 0x3d,
    0xe1, 0xc9, 0xdb, 0xbc, 0x28, 0xa7, 0xc4, 0x3c, 0xb5, 0x61,
    0x96, 0xbc, 0x5e, 0x7d, 0x93, 0x3d, 0xe7, 0x76, 0xe4, 0x3d,
    0xcb, 0x15, 0x39, 0xbc, 0x8a, 0xe5, 0xd8, 0x3d, 0xf7, 0x7d,
    0x7e, 0x3c, 0x63, 0x2a, 0x9c, 0xbd, 0x43, 0x08, 0xf0, 0xbd,
    0x7f, 0x8b, 0xc7, 0x3d, 0xc0, 0xbb, 0xa7, 0xbd, 0xc0, 0xbb,
    0x27, 0xbd, 0x9a, 0xec, 0x72, 0x3d, 0xf7, 0x7d, 0x7e, 0x3d,
    0x07, 0x99, 0x90, 0xbd, 0xb5, 0x61, 0x96, 0x3c, 0x12, 0xf3,
    0xa1, 0x3c, 0x43, 0x08, 0xf0, 0x3d, 0x58, 0xd0, 0x8a, 0x3b,
    0xba, 0x0e, 0x9f, 0x3d, 0x84, 0x38, 0x50, 0x3d, 0x63, 0x2a,
    0x1c, 0x3d, 0x6e, 0x84, 0x2d, 0xbd, 0x6e, 0x84, 0x2d, 0xbd,
    0x95, 0x3f, 0xea, 0x3d, 0x84, 0x38, 0x50, 0x3d, 0x33, 0x01,
    0xd6, 0xbd, 0x22, 0xfa, 0xbb, 0xbd, 0x84, 0x38, 0xd0, 0x3d,
    0x28, 0xa7, 0xc4, 0x3c, 0x8f, 0x92, 0xe1, 0x3d, 0x01, 0xec,
    0x07, 0x3e, 0x12, 0xf3, 0x21, 0x3d, 0xcb, 0x15, 0x39, 0x3d,
    0xcb, 0x15, 0xb9, 0xbb, 0xc5, 0x68, 0xb0, 0x3d, 0x3e, 0x5b,
    0xe7, 0xbb, 0x12, 0xf3, 0xa1, 0xbd, 0xcb, 0x15, 0xb9, 0x3d,
    0x63, 0x2a, 0x9c, 0xbd, 0x74, 0x31, 0xb6, 0x3d, 0x8f, 0x92,
    0x61, 0x3d, 0x38, 0xae, 0xde, 0xbd, 0x95, 0x3f, 0xea, 0x3d,
    0x53, 0x23, 0x82, 0x3d, 0x58, 0xd0, 0x8a, 0xbb, 0xaa, 0x07,
    0x05, 0x3d, 0x07, 0x99, 0x90, 0x3d, 0x12, 0xf3, 0xa1, 0xbd,
    0xcb, 0x15, 0x39, 0x3d, 0x01, 0xec, 0x87, 0xbd, 0x53, 0x23,
    0x82, 0xbd, 0x17, 0xa0, 0xaa, 0xbd, 0xf7, 0x7d, 0xfe, 0xbd,
    0x84, 0x38, 0xd0, 0xbc, 0x6e, 0x84, 0xad, 0xbd, 0x3e, 0x5b,
    0x67, 0xbc, 0x27, 0xb1, 0x00, 0x3e, 0xc5, 0x68, 0xb0, 0xbd,
    0xf7, 0x7d, 0x7e, 0xbc, 0x00, 0x00, 0x00, 0x00, 0xe1, 0xc9,
    0xdb, 0xbc, 0xcb, 0x15, 0x39, 0xbc, 0x74, 0x31, 0xb6, 0xbd,
    0xc0, 0xbb, 0x27, 0x3d, 0x58, 0xd0, 0x8a, 0xbd, 0xa0, 0x99,
    0xfb, 0xbd, 0x1d, 0x4d, 0x33, 0x3d, 0xcb, 0x15, 0xb9, 0x3c,
    0x01, 0xec, 0x87, 0xbd, 0xcb, 0x15, 0xb9, 0xbb, 0xb5, 0x61,
    0x96, 0x3c, 0x38, 0xae, 0xde, 0xbd, 0xec, 0x23, 0x6d, 0xbd,
    0x22, 0xfa, 0xbb, 0xbd, 0x6e, 0x84, 0x2d, 0xbd, 0x07, 0x99,
    0x90, 0xbd, 0xb5, 0x61, 0x96, 0x3d, 0x28, 0xa7, 0xc4, 0xbd,
    0x69, 0xd7, 0xa4, 0x3d, 0x1d, 0x4d, 0xb3, 0xbd, 0x3e, 0x5b,
    0xe7, 0xbd, 0x3e, 0x5b, 0x67, 0xbd, 0x12, 0xf3, 0x21, 0x3d,
    0xec, 0x23, 0x6d, 0x3d, 0x58, 0xd0, 0x8a, 0x3d, 0xcb, 0x15,
    0x39, 0xbd, 0xcb, 0x15, 0xb9, 0x3d, 0xdc, 0x1c, 0xd3, 0x3d,
    0x74, 0x31, 0xb6, 0xbd, 0xaa, 0x07, 0x05, 0xbd, 0x5e, 0x7d,
    0x93, 0x3d, 0xaf, 0xb4, 0x8d, 0x3d, 0xc5, 0x68, 0xb0, 0xbd,
    0x2d, 0x54, 0xcd, 0x3d, 0xc0, 0xbb, 0xa7, 0xbd, 0x58, 0xd0,
    0x8a, 0xbb, 0x2d, 0x54, 0xcd, 0xbd, 0xf7, 0x7d, 0x7e, 0x3d,
    0xf7, 0x7d, 0xfe, 0xbd, 0x2d, 0x5e, 0x09, 0x3e, 0x84, 0x38,
    0x50, 0x3c, 0xaa, 0x07, 0x85, 0xbd, 0xba, 0x0e, 0x9f, 0x3d,
    0x84, 0x38, 0x50, 0xbc, 0xc0, 0xbb, 0xa7, 0x3d, 0x3e, 0x5b,
    0x67, 0x3c, 0x0c, 0x46, 0x99, 0xbd, 0x74, 0x31, 0xb6, 0x3d,
    0x8f, 0x92, 0x61, 0xbd, 0x3e, 0x5b, 0xe7, 0xbb, 0xec, 0x23,
    0xed, 0xbd, 0xa0, 0x99, 0xfb, 0xbd, 0xe1, 0xc9, 0x5b, 0xbd,
    0xdb, 0x26, 0x0f, 0x3e, 0xe1, 0xc9, 0xdb, 0xbd, 0x84, 0x38,
    0x50, 0x3d, 0x9a, 0xec, 0xf2, 0x3c, 0x7e, 0x95, 0x03, 0x3e,
    0xec, 0x23, 0x6d, 0xbd, 0x89, 0xef, 0x14, 0xbe, 0xaf, 0xb4,
    0x0d, 0xbe, 0x9a, 0xec, 0xf2, 0xbd, 0x63, 0x2a, 0x1c, 0x3d,
    0x33, 0x01, 0x56, 0xbd, 0x0c, 0x46, 0x99, 0x3d, 0xe1, 0xc9,
    0x5b, 0xbd, 0x3e, 0x5b, 0xe7, 0x3c, 0x79, 0xde, 0xbe, 0xbd,
    0x07, 0x99, 0x90, 0x3d, 0x58, 0xd0, 0x8a, 0xbd, 0xe7, 0x76,
    0xe4, 0x3d, 0x3e, 0x5b, 0x67, 0x3c, 0xaa, 0x07, 0x85, 0xbd,
    0x8a, 0xe5, 0xd8, 0x3d, 0xe1, 0xc9, 0xdb, 0xbd, 0x12, 0xf3,
    0xa1, 0x3c, 0x5e, 0x7d, 0x93, 0xbd, 0xcb, 0x15, 0xb9, 0xbd,
    0x6e, 0x84, 0xad, 0xbd, 0x49, 0xb5, 0x78, 0x3d, 0x69, 0xd7,
    0xa4, 0xbd, 0xd1, 0xc2, 0xc1, 0x3d, 0x22, 0xfa, 0xbb, 0xbd,
    0x28, 0xa7, 0x44, 0xbd, 0x79, 0xde, 0x3e, 0xbd, 0x07, 0x99,
    0x90, 0xbd, 0xf7, 0x7d, 0xfe, 0xbd, 0xec, 0x23, 0x6d, 0x3d,
    0x84, 0x38, 0xd0, 0xbc, 0x63, 0x2a, 0x1c, 0x3d, 0x58, 0xd0,
    0x0a, 0xbc, 0x1d, 0x4d, 0xb3, 0x3d, 0x49, 0xb5, 0x78, 0x3d,
    0x84, 0x38, 0xd0, 0xbd, 0x38, 0xae, 0xde, 0x3d, 0xb5, 0x61,
    0x96, 0xbc, 0x07, 0x99, 0x90, 0x3d, 0xf7, 0x7d, 0xfe, 0x3d,
    0x9a, 0xec, 0xf2, 0x3d, 0x12, 0xf3, 0x21, 0xbc, 0x79, 0xde,
    0xbe, 0x3d, 0xcb, 0x15, 0x39, 0x3d, 0xcb, 0x15, 0x39, 0x3b,
    0x79, 0xde, 0x3e, 0x3d, 0x9a, 0xec, 0x72, 0x3d, 0x84, 0x38,
    0xd0, 0x3c, 0x74, 0x31, 0xb6, 0xbd, 0x58, 0xd0, 0x8a, 0x3c,
    0xf7, 0x7d, 0x7e, 0xbc, 0x58, 0xd0, 0x8a, 0x3b, 0x28, 0xa7,
    0xc4, 0xbd, 0xdc, 0x1c, 0xd3, 0xbd, 0x58, 0xd0, 0x8a, 0x3b,
    0xcb, 0x15, 0xb9, 0x3b, 0xba, 0x0e, 0x9f, 0xbd, 0x22, 0xfa,
    0xbb, 0xbd, 0xcb, 0x15, 0x39, 0x3b, 0x12, 0xf3, 0x21, 0xbd,
    0x1d, 0x4d, 0xb3, 0xbd, 0xe1, 0xc9, 0xdb, 0xbd, 0x6e, 0x84,
    0x2d, 0x3d, 0x07, 0x99, 0x10, 0xbd, 0x01, 0xec, 0x87, 0xbd,
    0x6e, 0x84, 0x2d, 0xbd, 0x9a, 0xec, 0xf2, 0x3c, 0x28, 0xa7,
    0xc4, 0x3d, 0xe7, 0x76, 0xe4, 0x3d, 0xd6, 0x6f, 0xca, 0xbd,
    0x5e, 0x7d, 0x93, 0x3d, 0xec, 0x23, 0x6d, 0x3d, 0x07, 0x99,
    0x10, 0xbd, 0x07, 0x99, 0x10, 0xbd, 0x22, 0xfa, 0xbb, 0xbd,
    0xb5, 0x61, 0x16, 0xbd, 0x12, 0xf3, 0xa1, 0xbd, 0x28, 0xa7,
    0xc4, 0xbd, 0xcb, 0x15, 0xb9, 0xba, 0x79, 0xde, 0x3e, 0x3d,
    0xd1, 0xc2, 0xc1, 0xbd, 0xa0, 0x99, 0xfb, 0x3d, 0x84, 0x38,
    0xd0, 0x3c, 0x53, 0x23, 0x02, 0xbe, 0xb5, 0x61, 0x96, 0x3d,
    0x38, 0xae, 0xde, 0x3d, 0x07, 0x99, 0x10, 0x3d, 0xf7, 0x7d,
    0xfe, 0xbc, 0x5e, 0x7d, 0x93, 0x3d, 0x58, 0xd0, 0x8a, 0x3c,
    0xb5, 0x61, 0x96, 0x3d, 0x84, 0x38, 0xd0, 0xbd, 0x9a, 0xec,
    0xf2, 0xbd, 0xf7, 0x7d, 0x7e, 0x3d, 0xc5, 0x68, 0xb0, 0xbd,
    0x07, 0x99, 0x90, 0x3d, 0xec, 0x23, 0x6d, 0xbd, 0xcb, 0x15,
    0x39, 0xbc, 0x63, 0x2a, 0x1c, 0x3d, 0x28, 0xa7, 0xc4, 0xbd,
    0x79, 0xde, 0x3e, 0x3d, 0xcb, 0x15, 0x39, 0xbc, 0xe1, 0xc9,
    0x5b, 0x3d, 0xcb, 0x15, 0xb9, 0x3d, 0x58, 0xd0, 0x8a, 0xbc,
    0x3e, 0x5b, 0xe7, 0xbc, 0x28, 0xa7, 0xc4, 0xbd, 0xdc, 0x1c,
    0xd3, 0xbd, 0x79, 0xde, 0x3e, 0xbd, 0x00, 0x00, 0x00, 0x00,
    0x2d, 0x54, 0xcd, 0x3d, 0x5e, 0x7d, 0x93, 0xbd, 0x3e, 0x5b,
    0xe7, 0x3d, 0x17, 0xa0, 0xaa, 0xbd, 0x63, 0x2a, 0x1c, 0xbd,
    0xec, 0x23, 0x6d, 0xbd, 0x17, 0xa0, 0xaa, 0xbd, 0xc0, 0xbb,
    0x27, 0xbd, 0x01, 0xec, 0x87, 0xbd, 0x53, 0x23, 0x02, 0xbe,
    0x8f, 0x92, 0xe1, 0xbd, 0x27, 0xb1, 0x00, 0xbe, 0x33, 0x01,
    0xd6, 0x3d, 0xf7, 0x7d, 0xfe, 0x3c, 0xc5, 0x68, 0xb0, 0xbd,
    0xcb, 0x15, 0x39, 0xbc, 0xf7, 0x7d, 0x7e, 0x3d, 0xe1, 0xc9,
    0x5b, 0x3d, 0x95, 0x3f, 0xea, 0x3d, 0xcb, 0x15, 0x39, 0x3c,
    0x84, 0x38, 0x50, 0xbd, 0x84, 0x38, 0x50, 0x3d, 0xf7, 0x7d,
    0xfe, 0xbc, 0x22, 0xfa, 0xbb, 0x3d, 0xcb, 0x15, 0x39, 0xbb,
    0x58, 0xd0, 0x0a, 0x3c, 0x53, 0x23, 0x82, 0xbd, 0x28, 0xa7,
    0xc4, 0xbd, 0xf2, 0xd0, 0xf5, 0xbd, 0x58, 0xd0, 0x0a, 0xbd,
    0xc5, 0x68, 0xb0, 0xbd, 0x79, 0xde, 0x3e, 0xbd, 0x95, 0x3f,
    0xea, 0x3d, 0xba, 0x0e, 0x9f, 0xbd, 0xc0, 0xbb, 0x27, 0xbd,
    0x49, 0xb5, 0xf8, 0xbd, 0x84, 0x38, 0x50, 0x3d, 0x58, 0xd0,
    0x8a, 0xbd, 0xcb, 0x15, 0x39, 0x3c, 0x27, 0xb1, 0x00, 0xbe,
    0x49, 0xb5, 0x78, 0xbd, 0x3e, 0x5b, 0x67, 0x3d, 0x58, 0xd0,
    0x0a, 0x3c, 0x49, 0xb5, 0x78, 0x3d, 0x1d, 0x4d, 0xb3, 0xbd,
    0x69, 0xd7, 0xa4, 0xbd, 0xb5, 0x61, 0x96, 0xbd, 0xe7, 0x76,
    0xe4, 0x3d, 0x3e, 0x5b, 0xe7, 0x3c, 0x58, 0xd0, 0x8a, 0x3c,
    0x01, 0xec, 0x87, 0x3d, 0x84, 0x38, 0x50, 0xbc, 0x0c, 0x46,
    0x99, 0x3d, 0x8f, 0x92, 0x61, 0x3d, 0x6e, 0x84, 0xad, 0x3d,
    0x58, 0xd0, 0x0a, 0x3d, 0x01, 0xec, 0x87, 0x3d, 0xaf, 0xb4,
    0x8d, 0xbd, 0x2d, 0x54, 0xcd, 0x3d, 0x3e, 0x5b, 0xe7, 0xbc,
    0x12, 0xf3, 0xa1, 0xbd, 0xe7, 0x76, 0xe4, 0x3d, 0x3e, 0x5b,
    0xe7, 0x3d, 0xec, 0x23, 0xed, 0x3d, 0x69, 0xd7, 0xa4, 0xbd,
    0xf7, 0x7d, 0x7e, 0x3c, 0x33, 0x01, 0x56, 0x3d, 0x79, 0xde,
    0xbe, 0x3d, 0xa0, 0x99, 0xfb, 0x3d, 0x12, 0xf3, 0x21, 0x3c,
    0x28, 0xa7, 0xc4, 0xbc, 0xaa, 0x07, 0x05, 0x3d, 0x9a, 0xec,
    0xf2, 0xbd, 0x6e, 0x84, 0xad, 0x3c, 0x38, 0xae, 0xde, 0xbd,
    0x0c, 0x46, 0x99, 0x3d, 0x2d, 0x54, 0xcd, 0x3d, 0x17, 0xa0,
    0xaa, 0xbd, 0xd6, 0x6f, 0x4a, 0x3d, 0xb5, 0x61, 0x16, 0xbd,
    0x58, 0xd0, 0x0a, 0xbc, 0x7e, 0x95, 0x03, 0x3e, 0x6e, 0x84,
    0x2d, 0xbd, 0xc0, 0xbb, 0xa7, 0xbd, 0x12, 0xf3, 0x21, 0x3c,
    0x95, 0x3f, 0xea, 0x3d, 0xd6, 0x6f, 0xca, 0x3d, 0xa0, 0x99,
    0xfb, 0x3d, 0xcb, 0x15, 0x39, 0xbb, 0x95, 0x3f, 0xea, 0xbd,
    0xb5, 0x61, 0x96, 0x3c, 0x79, 0xde, 0x3e, 0x3d, 0x58, 0xd0,
    0x8a, 0x3d, 0x43, 0x08, 0xf0, 0xbd, 0x1d, 0x4d, 0xb3, 0x3d,
    0x8f, 0x92, 0x61, 0x3d, 0x9a, 0xec, 0xf2, 0xbc, 0x7f, 0x8b,
    0xc7, 0xbd, 0xdc, 0x1c, 0xd3, 0x3d, 0x3e, 0x5b, 0x67, 0x3d,
    0xcb, 0x15, 0xb9, 0x3d, 0x3e, 0x5b, 0x67, 0xbd, 0x63, 0x2a,
    0x1c, 0xbd, 0xaa, 0x07, 0x85, 0x3d, 0x01, 0xec, 0x87, 0xbd,
    0x58, 0xd0, 0x8a, 0x3b, 0xaf, 0xb4, 0x8d, 0xbd, 0x12, 0xf3,
    0x21, 0xbd, 0x22, 0xfa, 0xbb, 0xbd, 0x58, 0xd0, 0x0a, 0x3d,
    0xd1, 0xc2, 0xc1, 0xbd, 0x58, 0xd0, 0x8a, 0xbc, 0xcb, 0x15,
    0xb9, 0xbb, 0xb5, 0x61, 0x96, 0xbd, 0x84, 0x38, 0x50, 0xbd,
    0x74, 0x31, 0xb6, 0x3d, 0x2d, 0x54, 0xcd, 0x3d, 0x1d, 0x4d,
    0xb3, 0xbd, 0xd1, 0xc2, 0xc1, 0xbd, 0x12, 0xf3, 0xa1, 0x3c,
    0x12, 0xf3, 0x21, 0x3c, 0x6e, 0x84, 0xad, 0x3c, 0x58, 0xd0,
    0x8a, 0x3b, 0x27, 0xb1, 0x00, 0x3e, 0x28, 0xa7, 0xc4, 0xbc,
    0x58, 0xd0, 0x0a, 0xbd, 0x43, 0x08, 0xf0, 0xbd, 0xec, 0x23,
    0xed, 0xbd, 0x6e, 0x84, 0xad, 0x3c, 0x69, 0xd7, 0xa4, 0x3d,
    0xb5, 0x61, 0x96, 0x3d, 0x8a, 0xe5, 0xd8, 0xbd, 0xaf, 0xb4,
    0x8d, 0xbd, 0x84, 0x38, 0x50, 0xbc, 0xc5, 0x68, 0xb0, 0x3d,
    0x6e, 0x84, 0xad, 0x3d, 0xaf, 0xb4, 0x8d, 0x3d, 0xba, 0x0e,
    0x9f, 0x3d, 0x3e, 0x5b, 0xe7, 0xbb, 0xf7, 0x7d, 0xfe, 0xbc,
    0xb5, 0x61, 0x96, 0x3d, 0x74, 0x31, 0xb6, 0xbd, 0x07, 0x99,
    0x90, 0xbd, 0x3e, 0x5b, 0x67, 0x3c, 0x33, 0x01, 0xd6, 0x3d,
    0xcb, 0x15, 0xb9, 0xba, 0xe1, 0xc9, 0x5b, 0xbd, 0x38, 0xae,
    0xde, 0xbd, 0x6e, 0x84, 0xad, 0xbd, 0x84, 0x38, 0x50, 0xbc,
    0xf7, 0x7d, 0xfe, 0x3d, 0xcb, 0x15, 0xb9, 0xbc, 0x63, 0x2a,
    0x1c, 0x3d, 0xcb, 0x15, 0xb9, 0xba, 0xb5, 0x61, 0x16, 0xbd,
    0x38, 0xae, 0xde, 0x3d, 0x01, 0xec, 0x87, 0xbd, 0x58, 0xd0,
    0x0a, 0xbd, 0x58, 0xd0, 0x0a, 0x3d, 0xe1, 0xc9, 0x5b, 0x3d,
    0x74, 0x31, 0xb6, 0xbd, 0x58, 0xd0, 0x0a, 0x3d, 0x3e, 0x5b,
    0xe7, 0x3b, 0x3e, 0x5b, 0xe7, 0x3b, 0x6e, 0x84, 0xad, 0x3d,
    0x28, 0xa7, 0xc4, 0xbc, 0x3e, 0x5b, 0xe7, 0x3c, 0xaa, 0x07,
    0x85, 0x3d, 0x84, 0x38, 0x50, 0xbd, 0x0c, 0x46, 0x99, 0x3d,
    0xcb, 0x15, 0x39, 0x3c, 0xc5, 0x68, 0xb0, 0x3d, 0xcb, 0x15,
    0x39, 0xbb, 0x58, 0xd0, 0x8a, 0xbd, 0xe1, 0xc9, 0xdb, 0x3d,
    0x6e, 0x84, 0x2d, 0x3d, 0x3e, 0x5b, 0x67, 0xbc, 0xb5, 0x61,
    0x16, 0x3d, 0xcb, 0x15, 0xb9, 0x3a, 0xaa, 0x07, 0x05, 0xbd,
    0x28, 0xa7, 0x44, 0x3d, 0x9a, 0xec, 0xf2, 0xbd, 0x9a, 0xec,
    0xf2, 0x3d, 0x8a, 0xe5, 0xd8, 0x3d, 0x9a, 0xec, 0xf2, 0xbc,
    0xaa, 0x07, 0x05, 0xbe, 0x8f, 0x92, 0x61, 0xbd, 0xdc, 0x1c,
    0xd3, 0x3d, 0x0c, 0x46, 0x99, 0xbd, 0xb5, 0x61, 0x16, 0x3d,
    0x8a, 0xe5, 0xd8, 0x3d, 0x07, 0x99, 0x90, 0x3d, 0xcb, 0x15,
    0x39, 0xbc, 0xb5, 0x61, 0x16, 0xbd, 0x95, 0x3f, 0xea, 0x3d,
    0x01, 0xec, 0x07, 0xbe, 0xe1, 0xc9, 0x5b, 0xbd, 0x43, 0x08,
    0xf0, 0xbd, 0x58, 0xd0, 0x0a, 0x3c, 0xaa, 0x07, 0x05, 0x3d,
    0xec, 0x23, 0x6d, 0xbd, 0xaa, 0x07, 0x85, 0x3d, 0x63, 0x2a,
    0x1c, 0x3d, 0xcb, 0x15, 0x39, 0xbc, 0x58, 0xd0, 0x8a, 0x3c,
    0x00, 0x00, 0x00, 0x00, 0xaa, 0x07, 0x85, 0xbd, 0x63, 0x2a,
    0x9c, 0xbd, 0xe7, 0x76, 0xe4, 0xbd, 0xcb, 0x15, 0xb9, 0xbc,
    0x9a, 0xec, 0xf2, 0xbc, 0x22, 0xfa, 0xbb, 0x3d, 0x0c, 0x46,
    0x99, 0x3d, 0x79, 0xde, 0x3e, 0x3d, 0x3e, 0x5b, 0x67, 0xbc,
    0xf7, 0x7d, 0xfe, 0x3d, 0x7e, 0x95, 0x03, 0xbe, 0x63, 0x2a,
    0x1c, 0x3d, 0x33, 0x01, 0x56, 0xbd, 0x3e, 0x5b, 0xe7, 0x3d,
    0xcb, 0x15, 0x39, 0x3c, 0x58, 0xd0, 0x8a, 0x3c, 0x5e, 0x7d,
    0x93, 0x3d, 0xb5, 0x61, 0x16, 0x3d, 0xaa, 0x07, 0x85, 0x3d,
    0x69, 0xd7, 0xa4, 0xbd, 0xaa, 0x07, 0x05, 0x3d, 0xc0, 0xbb,
    0xa7, 0xbd, 0x17, 0xa0, 0xaa, 0x3d, 0xc0, 0xbb, 0xa7, 0x3d,
    0x28, 0xa7, 0x44, 0xbd, 0x1d, 0x4d, 0xb3, 0x3d, 0x58, 0xd0,
    0x0a, 0x3d, 0x69, 0xd7, 0xa4, 0xbd, 0xa0, 0x99, 0xfb, 0xbd,
    0x84, 0x38, 0xd0, 0xbd, 0x5e, 0x7d, 0x93, 0x3d, 0x84, 0x38,
    0x50, 0x3d, 0xf2, 0xd0, 0xf5, 0xbd, 0x38, 0xae, 0xde, 0xbd,
    0xec, 0x23, 0xed, 0xbd, 0x5e, 0x7d, 0x93, 0x3d, 0xcb, 0x15,
    0x39, 0x3d, 0x6e, 0x84, 0xad, 0xbd, 0xc5, 0x68, 0xb0, 0xbd,
    0x12, 0xf3, 0x21, 0xbd, 0x8f, 0x92, 0xe1, 0x3d, 0x5e, 0x7d,
    0x93, 0x3d, 0x63, 0x2a, 0x9c, 0x3d, 0x49, 0xb5, 0x78, 0x3d,
    0x58, 0xd0, 0x0a, 0xbc, 0x3e, 0x5b, 0xe7, 0xbc, 0x8f, 0x92,
    0x61, 0xbd, 0xe1, 0xc9, 0xdb, 0x3c, 0x58, 0xd0, 0x0a, 0x3d,
    0xdc, 0x1c, 0xd3, 0x3d, 0xba, 0x0e, 0x9f, 0x3d, 0xcb, 0x15,
    0xb9, 0x3c, 0x8f, 0x92, 0x61, 0x3d, 0x79, 0xde, 0xbe, 0xbd,
    0x9a, 0xec, 0xf2, 0xbd, 0xaf, 0xb4, 0x8d, 0x3d, 0x49, 0xb5,
    0x78, 0x3d, 0x1d, 0x4d, 0xb3, 0xbd, 0x58, 0xd0, 0x8a, 0xbc,
    0xcb, 0x15, 0xb9, 0x3c, 0x12, 0xf3, 0x21, 0xbd, 0x2d, 0x5e,
    0x09, 0x3e, 0x49, 0xb5, 0x78, 0x3d, 0x95, 0x3f, 0xea, 0x3d,
    0x58, 0xd0, 0x0a, 0xbd, 0x43, 0x08, 0xf0, 0x3d, 0xaa, 0x07,
    0x85, 0x3d, 0x8f, 0x92, 0xe1, 0x3d, 0x22, 0xfa, 0xbb, 0x3d,
    0x28, 0xa7, 0xc4, 0x3d, 0xe1, 0xd3, 0x17, 0x3e, 0xaa, 0x07,
    0x85, 0xbd, 0xec, 0x23, 0xed, 0x3d, 0xcb, 0x15, 0xb9, 0x3a,
    0x3e, 0x5b, 0xe7, 0x3d, 0x6e, 0x84, 0xad, 0x3d, 0xc0, 0xbb,
    0x27, 0x3d, 0x58, 0xd0, 0x8a, 0x3d, 0xb5, 0x61, 0x96, 0x3c,
    0x3e, 0x5b, 0x67, 0x3d, 0x6e, 0x84, 0xad, 0xbd, 0x58, 0xd0,
    0x8a, 0x3d, 0xd1, 0xc2, 0xc1, 0x3d, 0x63, 0x2a, 0x9c, 0x3d,
    0xf7, 0x7d, 0x7e, 0x3d, 0x84, 0x38, 0x50, 0xbd, 0xf2, 0xd0,
    0xf5, 0xbd, 0x12, 0xf3, 0xa1, 0xbd, 0x84, 0x38, 0xd0, 0xbd,
    0x58, 0xd0, 0x8a, 0xbd, 0xec, 0x23, 0xed, 0x3d, 0xec, 0x23,
    0x6d, 0x3d, 0x63, 0x2a, 0x9c, 0x3d, 0xec, 0x23, 0x6d, 0x3d,
    0x6e, 0x84, 0xad, 0xbc, 0xc0, 0xbb, 0x27, 0x3d, 0x9a, 0xec,
    0x72, 0x3d, 0x8a, 0xe5, 0xd8, 0x3d, 0x6e, 0x84, 0xad, 0xbd,
    0xc0, 0xbb, 0xa7, 0x3d, 0x7e, 0x95, 0x03, 0x3e, 0x01, 0xec,
    0x87, 0x3d, 0x12, 0xf3, 0x21, 0xbc, 0x07, 0x99, 0x90, 0x3d,
    0x43, 0x08, 0xf0, 0x3d, 0x33, 0x01, 0x56, 0xbd, 0xf7, 0x7d,
    0x7e, 0xbd, 0x28, 0xa7, 0xc4, 0xbd, 0x53, 0x23, 0x82, 0x3d,
    0x63, 0x2a, 0x9c, 0xbd, 0x58, 0xd0, 0x0a, 0x3c, 0xf7, 0x7d,
    0x7e, 0x3c, 0x33, 0x01, 0x56, 0xbd, 0x12, 0xf3, 0xa1, 0xbd,
    0xd1, 0xc2, 0xc1, 0xbd, 0x79, 0xde, 0xbe, 0xbd, 0xb5, 0x61,
    0x96, 0xbc, 0xd1, 0xc2, 0xc1, 0xbd, 0x8f, 0x92, 0x61, 0xbd,
    0x07, 0x99, 0x10, 0x3d, 0xcb, 0x15, 0x39, 0xbd, 0x3e, 0x5b,
    0x67, 0x3d, 0x07, 0x99, 0x90, 0x3d, 0x32, 0x0b, 0x12, 0x3e,
    0x95, 0x3f, 0xea, 0xbd, 0x84, 0x38, 0x50, 0xbd, 0x6e, 0x84,
    0xad, 0xbc, 0xd1, 0xc2, 0xc1, 0x3d, 0xd5, 0x79, 0x06, 0x3e,
    0xe1, 0xc9, 0x5b, 0xbd, 0xe1, 0xc9, 0xdb, 0x3d, 0xe7, 0x76,
    0xe4, 0x3d, 0x6e, 0x84, 0xad, 0xbc, 0x3e, 0x5b, 0xe7, 0xbd,
    0xd6, 0x6f, 0x4a, 0x3d, 0x74, 0x31, 0xb6, 0xbd, 0x28, 0xa7,
    0xc4, 0xbc, 0x28, 0xa7, 0xc4, 0x3d, 0x9a, 0xec, 0x72, 0xbd,
    0x43, 0x08, 0xf0, 0xbd, 0x6e, 0x84, 0xad, 0x3d, 0x84, 0x38,
    0xd0, 0xbc, 0xf2, 0xd0, 0xf5, 0xbd, 0xec, 0x23, 0xed, 0x3d,
    0xcb, 0x15, 0x39, 0x3c, 0xaa, 0x07, 0x85, 0xbd, 0xcb, 0x15,
    0xb9, 0xba, 0xb5, 0x61, 0x16, 0xbe, 0x49, 0xb5, 0xf8, 0x3d,
    0xb5, 0x61, 0x96, 0x3c, 0x33, 0x01, 0xd6, 0xbd, 0x49, 0xb5,
    0xf8, 0xbd, 0xec, 0x23, 0xed, 0x3d, 0xf7, 0x7d, 0x7e, 0x3c,
    0x07, 0x99, 0x10, 0x3d, 0xc0, 0xbb, 0xa7, 0x3d, 0x2d, 0x54,
    0xcd, 0x3d, 0xf7, 0x7d, 0xfe, 0xbc, 0x38, 0xae, 0xde, 0x3d,
    0xd6, 0x6f, 0xca, 0x3d, 0xf7, 0x7d, 0x7e, 0x3c, 0x63, 0x2a,
    0x1c, 0x3d, 0xcb, 0x15, 0x39, 0xbb, 0x12, 0xf3, 0xa1, 0x3c,
    0x07, 0x99, 0x10, 0x3d, 0x3e, 0x5b, 0x67, 0x3c, 0x07, 0x99,
    0x10, 0x3d, 0xdc, 0x1c, 0xd3, 0x3d, 0x84, 0x38, 0xd0, 0xbc,
    0xb5, 0x61, 0x16, 0x3e, 0x84, 0x38, 0x50, 0x3d, 0x3e, 0x5b,
    0xe7, 0xbb, 0x3e, 0x5b, 0x67, 0xbc, 0x9a, 0xec, 0xf2, 0xbd,
    0x07, 0x99, 0x90, 0x3d, 0x28, 0xa7, 0xc4, 0xbc, 0x12, 0xf3,
    0xa1, 0x3d, 0x00, 0x00, 0x00, 0x00, 0xa0, 0x99, 0xfb, 0xbd,
    0xcb, 0x15, 0xb9, 0x3b, 0x28, 0xa7, 0xc4, 0x3d, 0xb5, 0x61,
    0x96, 0x3c, 0xe1, 0xc9, 0x5b, 0x3d, 0xb5, 0x61, 0x96, 0xbd,
    0x3e, 0x5b, 0xe7, 0xbd, 0x33, 0x01, 0xd6, 0xbd, 0x12, 0xf3,
    0x21, 0x3c, 0xdc, 0x1c, 0xd3, 0xbd, 0x28, 0xa7, 0xc4, 0x3c,
    0x1d, 0x4d, 0x33, 0x3d, 0xb5, 0x61, 0x96, 0xbc, 0xec, 0x23,
    0x6d, 0xbd, 0xaa, 0x07, 0x05, 0x3d, 0xaa, 0x07, 0x05, 0xbd,
    0xaa, 0x07, 0x85, 0x3d, 0x74, 0x31, 0xb6, 0x3d, 0x58, 0xd0,
    0x0a, 0x3d, 0x84, 0x38, 0xd0, 0xbd, 0xec, 0x23, 0xed, 0xbd,
    0x6e, 0x84, 0xad, 0x3c, 0xc5, 0x68, 0xb0, 0x3d, 0x00, 0x00,
    0x00, 0x00, 0x33, 0x01, 0x56, 0xbd, 0x53, 0x23, 0x02, 0x3e,
    0xd6, 0x6f, 0xca, 0x3d, 0xec, 0x23, 0xed, 0xbd, 0x3e, 0x5b,
    0x67, 0x3c, 0x84, 0x38, 0x50, 0xbc, 0xc5, 0x68, 0xb0, 0xbd,
    0x3e, 0x5b, 0xe7, 0xbc, 0xd6, 0x6f, 0x4a, 0xbd, 0x7f, 0x8b,
    0xc7, 0xbd, 0x3e, 0x5b, 0xe7, 0x3c, 0x6e, 0x84, 0xad, 0x3d,
    0xaf, 0xb4, 0x0d, 0xbe, 0xf7, 0x7d, 0x7e, 0x3c, 0xec, 0x23,
    0x6d, 0x3d, 0x3e, 0x5b, 0x67, 0xbd, 0x0c, 0x46, 0x99, 0x3d,
    0x6e, 0x84, 0xad, 0xbc, 0x3e, 0x5b, 0xe7, 0xbd, 0xd6, 0x6f,
    0x4a, 0xbd, 0xc5, 0x68, 0xb0, 0xbd, 0xdc, 0x1c, 0xd3, 0x3d,
    0x28, 0xa7, 0x44, 0xbd, 0x6e, 0x84, 0x2d, 0xbd, 0x6e, 0x84,
    0xad, 0xbc, 0x2d, 0x54, 0xcd, 0x3d, 0x17, 0xa0, 0xaa, 0xbd,
    0xe1, 0xc9, 0xdb, 0x3d, 0x84, 0x38, 0xd0, 0x3c, 0x12, 0xf3,
    0xa1, 0x3c, 0x33, 0x01, 0x56, 0x3d, 0xd6, 0x6f, 0xca, 0x3d,
    0xf2, 0xd0, 0xf5, 0xbd, 0x6e, 0x84, 0x2d, 0xbd, 0x17, 0xa0,
    0xaa, 0xbd, 0xc0, 0xbb, 0x27, 0x3d, 0x49, 0xb5, 0x78, 0x3d,
    0x0c, 0x46, 0x99, 0x3d, 0xaa, 0x07, 0x85, 0xbd, 0x3e, 0x5b,
    0xe7, 0xbc, 0x12, 0xf3, 0xa1, 0xbc, 0x84, 0x38, 0xd0, 0x3d,
    0xf2, 0xd0, 0xf5, 0xbd, 0x49, 0xb5, 0x78, 0xbd, 0x07, 0x99,
    0x10, 0xbd, 0x1d, 0x4d, 0xb3, 0xbd, 0x38, 0xae, 0xde, 0xbd,
    0x58, 0xd0, 0x0a, 0xbd, 0xb5, 0x61, 0x96, 0xbd, 0xe1, 0xc9,
    0x5b, 0x3d, 0x01, 0xec, 0x07, 0x3e, 0xc5, 0x68, 0xb0, 0xbd,
    0xcb, 0x15, 0xb9, 0xbb, 0xb5, 0x61, 0x16, 0xbd, 0xe1, 0xc9,
    0xdb, 0xbc, 0xd1, 0xc2, 0xc1, 0x3d, 0x33, 0x01, 0xd6, 0xbd,
    0x43, 0x08, 0xf0, 0x3d, 0x12, 0xf3, 0x21, 0x3d, 0x84, 0x38,
    0x50, 0x3c, 0x01, 0xec, 0x87, 0x3d, 0x9a, 0xec, 0xf2, 0xbc,
    0x53, 0x23, 0x82, 0xbd, 0xba, 0x0e, 0x9f, 0xbd, 0x63, 0x2a,
    0x9c, 0x3d, 0x58, 0xd0, 0x8a, 0xbc, 0xb5, 0x61, 0x96, 0xbc,
    0x3e, 0x5b, 0x67, 0x3c, 0x12, 0xf3, 0x21, 0xbc, 0xaa, 0x07,
    0x05, 0xbd, 0x28, 0xa7, 0xc4, 0x3d, 0x79, 0xde, 0x3e, 0xbd,
    0xcb, 0x15, 0x39, 0x3c, 0x38, 0xae, 0xde, 0xbd, 0x12, 0xf3,
    0x21, 0x3d, 0x8f, 0x92, 0x61, 0xbd, 0x1d, 0x4d, 0x33, 0xbd,
    0x6e, 0x84, 0xad, 0xbd, 0xd1, 0xc2, 0xc1, 0xbd, 0x12, 0xf3,
    0xa1, 0xbc, 0xd1, 0xc2, 0xc1, 0xbd, 0x12, 0xf3, 0xa1, 0x3c,
    0x58, 0xd0, 0x0a, 0xbc, 0x28, 0xa7, 0xc4, 0xbc, 0x3e, 0x5b,
    0xe7, 0xbd, 0x17, 0xa0, 0xaa, 0x3d, 0x1d, 0x4d, 0xb3, 0xbd,
    0xcb, 0x15, 0x39, 0xbb, 0xc0, 0xbb, 0x27, 0x3d, 0x27, 0xb1,
    0x00, 0x3e, 0xcb, 0x15, 0xb9, 0xba, 0x58, 0xd0, 0x8a, 0xbb,
    0xd1, 0xc2, 0xc1, 0x3d, 0x1d, 0x4d, 0x33, 0x3d, 0x74, 0x31,
    0xb6, 0xbd, 0x63, 0x2a, 0x1c, 0x3d, 0x79, 0xde, 0xbe, 0xbd,
    0x5e, 0x7d, 0x93, 0xbd, 0x8f, 0x92, 0xe1, 0x3d, 0x6e, 0x84,
    0xad, 0xbc, 0xaa, 0x07, 0x05, 0x3e, 0xb5, 0x61, 0x16, 0x3d,
    0x8f, 0x92, 0xe1, 0xbd, 0xa0, 0x99, 0xfb, 0xbd, 0x53, 0x23,
    0x82, 0xbd, 0x43, 0x08, 0xf0, 0xbd, 0xcb, 0x15, 0x39, 0x3b,
    0x58, 0xd0, 0x8a, 0xbc, 0xcb, 0x15, 0xb9, 0xba, 0x6e, 0x84,
    0xad, 0xbd, 0xc0, 0xbb, 0x27, 0x3d, 0xdc, 0x1c, 0xd3, 0x3d,
    0x9a, 0xec, 0x72, 0xbd, 0x8a, 0xe5, 0xd8, 0x3d, 0x07, 0x99,
    0x10, 0x3d, 0x9a, 0xec, 0xf2, 0x3d, 0x58, 0xd0, 0x0a, 0x3c,
    0x22, 0xfa, 0xbb, 0xbd, 0x12, 0xf3, 0x21, 0x3c, 0xaa, 0x07,
    0x05, 0xbe, 0x28, 0xa7, 0xc4, 0xbd, 0x95, 0x3f, 0xea, 0x3d,
    0x9a, 0xec, 0x72, 0x3d, 0xcb, 0x15, 0x39, 0x3b, 0x3e, 0x5b,
    0x67, 0xbd, 0x79, 0xde, 0xbe, 0xbd, 0x3e, 0x5b, 0xe7, 0xbd,
    0xe1, 0xc9, 0xdb, 0x3d, 0x5e, 0x7d, 0x93, 0xbd, 0x3e, 0x5b,
    0x67, 0x3c, 0x84, 0x38, 0xd0, 0xbd, 0xcb, 0x15, 0x39, 0x3b,
    0x22, 0xfa, 0xbb, 0xbd, 0x69, 0xd7, 0xa4, 0xbd, 0x84, 0x38,
    0xd0, 0xbd, 0x07, 0x99, 0x90, 0xbd, 0x27, 0xb1, 0x00, 0x3e,
    0x8a, 0xe5, 0xd8, 0xbd, 0x38, 0xae, 0xde, 0xbd, 0xf7, 0x7d,
    0xfe, 0xbc, 0xf7, 0x7d, 0xfe, 0xbc, 0xd1, 0xc2, 0xc1, 0xbd,
    0x1d, 0x4d, 0x33, 0x3d, 0x8f, 0x92, 0xe1, 0x3d, 0x58, 0xd0,
    0x0a, 0x3d, 0xaa, 0x07, 0x85, 0xbd, 0xa0, 0x99, 0xfb, 0xbd,
    0x33, 0x01, 0xd6, 0xbd, 0x43, 0x08, 0xf0, 0x3d, 0x8f, 0x92,
    0xe1, 0xbd, 0x28, 0xa7, 0xc4, 0x3c, 0x28, 0xa7, 0xc4, 0xbd,
    0x7e, 0x95, 0x03, 0x3e, 0xd1, 0xc2, 0xc1, 0xbd, 0x17, 0xa0,
    0xaa, 0x3d, 0x2d, 0x54, 0xcd, 0x3d, 0x7f, 0x8b, 0xc7, 0xbd,
    0xe1, 0xc9, 0xdb, 0xbd, 0x43, 0x08, 0xf0, 0x3d, 0xcb, 0x15,
    0xb9, 0x3d, 0x53, 0x23, 0x82, 0xbd, 0xcb, 0x15, 0xb9, 0xbb,
    0x49, 0xb5, 0xf8, 0x3d, 0x0c, 0x46, 0x99, 0x3d, 0x1d, 0x4d,
    0x33, 0x3d, 0x9a, 0xec, 0x72, 0xbd, 0x95, 0x3f, 0xea, 0xbd,
    0xaf, 0xb4, 0x8d, 0xbd, 0x3e, 0x5b, 0x67, 0xbd, 0x79, 0xde,
    0x3e, 0xbd, 0xdc, 0x1c, 0xd3, 0x3d, 0x6e, 0x84, 0xad, 0x3c,
    0x33, 0x01, 0x56, 0x3d, 0x58, 0xd0, 0x0a, 0xbc, 0xe1, 0xc9,
    0xdb, 0xbc, 0x22, 0xfa, 0xbb, 0x3d, 0xcb, 0x15, 0x39, 0x3d,
    0x74, 0x31, 0xb6, 0x3d, 0x84, 0x38, 0xd0, 0xbc, 0x84, 0x38,
    0xd0, 0xbc, 0xd6, 0x6f, 0x4a, 0xbd, 0xe1, 0xc9, 0xdb, 0xbd,
    0x53, 0x23, 0x82, 0x3d, 0x9a, 0xec, 0xf2, 0x3c, 0x07, 0x99,
    0x90, 0x3d, 0xf7, 0x7d, 0x7e, 0x3c, 0xe7, 0x76, 0xe4, 0x3d,
    0x27, 0xb1, 0x00, 0xbe, 0x9a, 0xec, 0x72, 0x3d, 0xf7, 0x7d,
    0x7e, 0xbd, 0xdc, 0x1c, 0xd3, 0xbd, 0x12, 0xf3, 0x21, 0x3d,
    0xcb, 0x15, 0x39, 0x3c, 0x07, 0x99, 0x10, 0x3d, 0xd6, 0x6f,
    0xca, 0x3d, 0x17, 0xa0, 0xaa, 0x3d, 0xb5, 0x61, 0x96, 0xbc,
    0x6e, 0x84, 0x2d, 0x3d, 0x3e, 0x5b, 0xe7, 0x3b, 0xe1, 0xc9,
    0x5b, 0xbd, 0xaa, 0x07, 0x05, 0xbe, 0xcb, 0x15, 0xb9, 0xbc,
    0x33, 0x01, 0x56, 0x3d, 0x8f, 0x92, 0x61, 0xbd, 0x12, 0xf3,
    0xa1, 0xbc, 0x84, 0x38, 0xd0, 0xbd, 0xf7, 0x7d, 0x7e, 0xbd,
    0x8f, 0x92, 0xe1, 0xbd, 0xaf, 0xb4, 0x8d, 0xbd, 0x1d, 0x4d,
    0xb3, 0xbd, 0x12, 0xf3, 0xa1, 0xbc, 0xe1, 0xc9, 0x5b, 0x3d,
    0x8a, 0xe5, 0xd8, 0xbd, 0xcb, 0x15, 0xb9, 0xbb, 0xaf, 0xb4,
    0x8d, 0xbd, 0x12, 0xf3, 0x21, 0x3d, 0xd6, 0x6f, 0xca, 0x3d,
    0x12, 0xf3, 0x21, 0xbd, 0xaa, 0x07, 0x05, 0x3d, 0x33, 0x01,
    0x56, 0xbd, 0x74, 0x31, 0xb6, 0x3d, 0xb5, 0x61, 0x96, 0x3c,
    0x1d, 0x4d, 0x33, 0xbd, 0xe1, 0xc9, 0x5b, 0xbd, 0xcb, 0x15,
    0xb9, 0xbc, 0xaa, 0x07, 0x85, 0xbd, 0x43, 0x08, 0xf0, 0xbd,
    0x12, 0xf3, 0x21, 0x3d, 0x12, 0xf3, 0x21, 0x3c, 0x3e, 0x5b,
    0xe7, 0xbd, 0x84, 0x38, 0x50, 0x3c, 0x63, 0x2a, 0x1c, 0xbd,
    0x79, 0xde, 0xbe, 0xbd, 0x27, 0xb1, 0x00, 0xbe, 0x38, 0xae,
    0xde, 0x3d, 0xf7, 0x7d, 0xfe, 0xbd, 0xa0, 0x99, 0xfb, 0x3d,
    0x49, 0xb5, 0xf8, 0x3d, 0x01, 0xec, 0x87, 0x3d, 0xaa, 0x07,
    0x85, 0x3d, 0x9a, 0xec, 0xf2, 0x3d, 0x28, 0xa7, 0xc4, 0x3d,
    0xd6, 0x6f, 0xca, 0xbd, 0xd6, 0x6f, 0xca, 0xbd, 0x49, 0xb5,
    0x78, 0x3d, 0xec, 0x23, 0x6d, 0xbd, 0x00, 0x00, 0x00, 0x00,
    0xb5, 0x61, 0x96, 0xbc, 0x53, 0x23, 0x82, 0x3d, 0xcb, 0x15,
    0x39, 0xbc, 0xd1, 0xc2, 0xc1, 0xbd, 0x3e, 0x5b, 0xe7, 0x3b,
    0x12, 0xf3, 0xa1, 0xbc, 0x84, 0x38, 0xd0, 0xbd, 0x3e, 0x5b,
    0xe7, 0xbd, 0xf7, 0x7d, 0xfe, 0x3d, 0x8f, 0x92, 0x61, 0x3d,
    0xec, 0x23, 0x6d, 0xbd, 0xcb, 0x15, 0x39, 0xbb, 0x2d, 0x54,
    0xcd, 0x3d, 0x5e, 0x7d, 0x93, 0xbd, 0x58, 0xd0, 0x0a, 0x3d,
    0xc0, 0xbb, 0x27, 0xbd, 0x58, 0xd0, 0x8a, 0xbd, 0x6e, 0x84,
    0xad, 0xbc, 0x84, 0x38, 0x50, 0x3c, 0x12, 0xf3, 0xa1, 0xbc,
    0x79, 0xde, 0xbe, 0xbd, 0x58, 0xd0, 0x0a, 0xbd, 0xf7, 0x7d,
    0xfe, 0x3d, 0xd1, 0xc2, 0xc1, 0xbd, 0xcb, 0x15, 0x39, 0xbc,
    0x27, 0xb1, 0x00, 0xbe, 0xec, 0x23, 0x6d, 0xbd, 0x27, 0xb1,
    0x00, 0x3e, 0x6e, 0x84, 0xad, 0x3d, 0x22, 0xfa, 0xbb, 0x3d,
    0xdc, 0x1c, 0xd3, 0x3d, 0x3e, 0x5b, 0xe7, 0xbb, 0x79, 0xde,
    0x3e, 0xbd, 0xcb, 0x15, 0xb9, 0x3a, 0x33, 0x01, 0xd6, 0xbd,
    0x5e, 0x7d, 0x93, 0xbd, 0xc5, 0x68, 0xb0, 0x3d, 0xf7, 0x7d,
    0x7e, 0xbc, 0x84, 0x38, 0xd0, 0xbd, 0x84, 0x38, 0x50, 0x3d,
    0x43, 0x08, 0xf0, 0x3d, 0xf7, 0x7d, 0x7e, 0xbd, 0x9a, 0xec,
    0x72, 0x3d, 0xf7, 0x7d, 0xfe, 0x3d, 0xcb, 0x15, 0x39, 0xbb,
    0x3e, 0x5b, 0xe7, 0xbd, 0xba, 0x0e, 0x9f, 0x3d, 0x6e, 0x84,
    0xad, 0x3c, 0xd6, 0x6f, 0xca, 0x3d, 0xaf, 0xb4, 0x8d, 0x3d,
    0xd6, 0x6f, 0x4a, 0xbd, 0x58, 0xd0, 0x8a, 0x3c, 0x28, 0xa7,
    0xc4, 0xbd, 0x28, 0xa7, 0xc4, 0xbd, 0x12, 0xf3, 0x21, 0x3d,
    0xf7, 0x7d, 0xfe, 0xbc, 0x2d, 0x54, 0xcd, 0xbd, 0x9a, 0xec,
    0xf2, 0x3c, 0xcb, 0x15, 0xb9, 0x3a, 0x17, 0xa0, 0xaa, 0x3d,
    0x8a, 0xe5, 0xd8, 0x3d, 0x7e, 0x95, 0x03, 0xbe, 0xec, 0x23,
    0xed, 0x3d, 0x1d, 0x4d, 0x33, 0xbd, 0x1d, 0x4d, 0x33, 0x3d,
    0x38, 0xae, 0xde, 0x3d, 0xcb, 0x15, 0xb9, 0xbb, 0xb5, 0x61,
    0x16, 0x3d, 0xaa, 0x07, 0x85, 0x3d, 0x8f, 0x92, 0xe1, 0xbd,
    0xba, 0x0e, 0x9f, 0x3d, 0x12, 0xf3, 0x21, 0xbd, 0xb5, 0x61,
    0x96, 0xbd, 0xc0, 0xbb, 0x27, 0xbd, 0x7f, 0x8b, 0xc7, 0xbd,
    0x28, 0xa7, 0xc4, 0xbd, 0xb5, 0x61, 0x16, 0xbd, 0xf2, 0xd0,
    0xf5, 0xbd, 0x58, 0xd0, 0x8a, 0xbc, 0x33, 0x01, 0xd6, 0x3d,
    0x43, 0x08, 0xf0, 0xbd, 0xcb, 0x15, 0xb9, 0x3b, 0x6e, 0x84,
    0xad, 0xbd, 0x84, 0x38, 0x50, 0x3d, 0xe7, 0x76, 0xe4, 0x3d,
    0x07, 0x99, 0x10, 0x3d, 0xcb, 0x15, 0xb9, 0x3a, 0xaa, 0x07,
    0x05, 0x3d, 0xcb, 0x15, 0x39, 0x3d, 0x9a, 0xec, 0xf2, 0x3d,
    0x49, 0xb5, 0x78, 0x3d, 0x38, 0xae, 0xde, 0x3d, 0x9a, 0xec,
    0xf2, 0x3d, 0x84, 0x38, 0xd0, 0xbc, 0xf7, 0x7d, 0xfe, 0x3c,
    0x3e, 0x5b, 0xe7, 0x3d, 0xf7, 0x7d, 0x7e, 0x3d, 0x79, 0xde,
    0xbe, 0x3d, 0x12, 0xf3, 0xa1, 0xbc, 0x58, 0xd0, 0x8a, 0xbd,
    0xec, 0x23, 0x6d, 0x3d, 0x28, 0xa7, 0xc4, 0x3d, 0x2d, 0x54,
    0xcd, 0x3d, 0x95, 0x3f, 0xea, 0x3d, 0xe1, 0xc9, 0xdb, 0x3d,
    0x43, 0x08, 0xf0, 0x3d, 0x84, 0x38, 0xd0, 0xbc, 0xec, 0x23,
    0x6d, 0xbd, 0x58, 0xd0, 0x8a, 0xbb, 0xf7, 0x7d, 0xfe, 0xbd,
    0xdc, 0x1c, 0xd3, 0x3d, 0x3e, 0x5b, 0x67, 0xbd, 0x2d, 0x54,
    0xcd, 0x3d, 0x6e, 0x84, 0x2d, 0xbd, 0x27, 0xb1, 0x00, 0xbe,
    0xec, 0x23, 0x6d, 0xbd, 0x95, 0x3f, 0xea, 0x3d, 0xcb, 0x15,
    0x39, 0xbc, 0x28, 0xa7, 0xc4, 0x3d, 0x7f, 0x8b, 0xc7, 0xbd,
    0xe1, 0xc9, 0xdb, 0x3d, 0xf2, 0xd0, 0xf5, 0x3d, 0x49, 0xb5,
    0x78, 0xbd, 0x22, 0xfa, 0xbb, 0x3d, 0x8a, 0xe5, 0xd8, 0x3d,
    0xe1, 0xc9, 0xdb, 0x3c, 0x8f, 0x92, 0x61, 0xbd, 0x79, 0xde,
    0x3e, 0xbd, 0xdc, 0x1c, 0xd3, 0xbd, 0xcb, 0x15, 0xb9, 0xba,
    0x2d, 0x54, 0xcd, 0x3d, 0xcb, 0x15, 0x39, 0xbc, 0x28, 0xa7,
    0xc4, 0x3d, 0x49, 0xb5, 0x78, 0xbd, 0x28, 0xa7, 0xc4, 0x3d,
    0xb5, 0x61, 0x96, 0xbc, 0xdc, 0x1c, 0xd3, 0x3d, 0xba, 0x0e,
    0x9f, 0x3d, 0x84, 0x38, 0xd0, 0x3c, 0x12, 0xf3, 0x21, 0xbc,
    0xcb, 0x15, 0x39, 0x3d, 0x07, 0x99, 0x90, 0xbd, 0x17, 0xa0,
    0xaa, 0x3d, 0x2d, 0x54, 0xcd, 0xbd, 0x3e, 0x5b, 0xe7, 0xbb,
    0x49, 0xb5, 0x78, 0xbd, 0x9a, 0xec, 0xf2, 0x3c, 0x9a, 0xec,
    0xf2, 0x3c, 0x0c, 0x46, 0x99, 0xbd, 0x58, 0xd0, 0x0a, 0x3c,
    0xba, 0x0e, 0x9f, 0xbd, 0xcb, 0x15, 0x39, 0x3b, 0x9a, 0xec,
    0xf2, 0xbc, 0x01, 0xec, 0x87, 0x3d, 0x58, 0xd0, 0x8a, 0x3d,
    0x3e, 0x5b, 0xe7, 0xbb, 0x12, 0xf3, 0x21, 0xbc, 0xcb, 0x15,
    0x39, 0xbb, 0x53, 0x23, 0x82, 0xbd, 0xcb, 0x15, 0x39, 0xbb,
    0xe1, 0xc9, 0xdb, 0x3c, 0xd1, 0xc2, 0xc1, 0x3d, 0xd6, 0x6f,
    0x4a, 0x3d, 0xcb, 0x15, 0xb9, 0xbd, 0xcb, 0x15, 0xb9, 0x3d,
    0x63, 0x2a, 0x1c, 0x3d, 0x43, 0x08, 0xf0, 0x3d, 0x22, 0xfa,
    0xbb, 0xbd, 0xcb, 0x15, 0xb9, 0xbd, 0xc0, 0xbb, 0xa7, 0xbd,
    0x95, 0x3f, 0xea, 0x3d, 0xcb, 0x15, 0xb9, 0x3b, 0xd1, 0xc2,
    0xc1, 0xbd, 0x3e, 0x5b, 0xe7, 0xbb, 0x84, 0x38, 0xd0, 0xbc,
    0xb5, 0x61, 0x96, 0xbc, 0x53, 0x23, 0x02, 0x3e, 0x95, 0x3f,
    0xea, 0xbd, 0x84, 0x38, 0x50, 0x3d, 0x43, 0x08, 0xf0, 0xbd,
    0xa0, 0x99, 0xfb, 0x3d, 0x27, 0xb1, 0x00, 0xbe, 0x58, 0xd0,
    0x8a, 0x3b, 0x63, 0x2a, 0x9c, 0x3d, 0x3e, 0x5b, 0x67, 0x3d,
    0x28, 0xa7, 0xc4, 0x3d, 0xcb, 0x15, 0xb9, 0xbd, 0xf7, 0x7d,
    0xfe, 0xbc, 0xcb, 0x15, 0xb9, 0xba, 0x00, 0x00, 0x00, 0x00,
    0x6e, 0x84, 0xad, 0x3c, 0x9a, 0xec, 0xf2, 0xbd, 0x12, 0xf3,
    0x21, 0x3d, 0xcb, 0x15, 0xb9, 0x3a, 0xd6, 0x6f, 0xca, 0xbd,
    0x33, 0x01, 0xd6, 0x3d, 0x33, 0x01, 0x56, 0xbd, 0x79, 0xde,
    0xbe, 0x3d, 0x79, 0xde, 0xbe, 0xbd, 0x33, 0x01, 0xd6, 0x3d,
    0x01, 0xec, 0x87, 0xbd, 0xaf, 0xb4, 0x0d, 0x3e, 0xf7, 0x7d,
    0xfe, 0x3d, 0xd6, 0x6f, 0xca, 0xbd, 0xcb, 0x15, 0xb9, 0x3c,
    0x38, 0xae, 0xde, 0xbd, 0x63, 0x2a, 0x9c, 0xbd, 0x12, 0xf3,
    0x21, 0x3d, 0xcb, 0x15, 0xb9, 0x3c, 0x58, 0xd0, 0x8a, 0xbd,
    0xcb, 0x15, 0x39, 0xbc, 0x3e, 0x5b, 0x67, 0x3c, 0x58, 0xd0,
    0x8a, 0x3d, 0x84, 0x38, 0x50, 0x3d, 0xcb, 0x15, 0xb9, 0xbb,
    0xb5, 0x61, 0x96, 0x3c, 0xf7, 0x7d, 0x7e, 0xbd, 0xd6, 0x6f,
    0xca, 0x3d, 0x0c, 0x46, 0x99, 0xbd, 0x28, 0xa7, 0xc4, 0xbd,
    0x28, 0xa7, 0xc4, 0x3c, 0xf7, 0x7d, 0x7e, 0xbc, 0x28, 0xa7,
    0xc4, 0x3d, 0x3e, 0x5b, 0xe7, 0xbc, 0xd6, 0x6f, 0x4a, 0x3d,
    0x22, 0xfa, 0xbb, 0xbd, 0x38, 0xae, 0xde, 0xbd, 0x63, 0x2a,
    0x9c, 0xbd, 0x3e, 0x5b, 0xe7, 0xbc, 0x58, 0xd0, 0x0a, 0x3c,
    0xe1, 0xc9, 0xdb, 0xbc, 0x9a, 0xec, 0x72, 0xbd, 0x84, 0x38,
    0xd0, 0xbc, 0x17, 0xa0, 0xaa, 0x3d, 0x49, 0xb5, 0x78, 0x3d,
    0x17, 0xa0, 0xaa, 0x3d, 0x3e, 0x5b, 0x67, 0x3c, 0x8f, 0x92,
    0xe1, 0xbd, 0xdc, 0x1c, 0xd3, 0x3d, 0xf7, 0x7d, 0x7e, 0xbc,
    0xb5, 0x61, 0x96, 0x3c, 0x6e, 0x84, 0xad, 0xbc, 0x84, 0x38,
    0xd0, 0xbc, 0xb5, 0x61, 0x16, 0x3d, 0x43, 0x08, 0xf0, 0xbd,
    0x28, 0xa7, 0xc4, 0xbd, 0x63, 0x2a, 0x1c, 0x3d, 0x58, 0xd0,
    0x8a, 0xbb, 0xf2, 0xd0, 0xf5, 0xbd, 0x58, 0xd0, 0x0a, 0x3c,
    0xcb, 0x15, 0x39, 0xbd, 0xb5, 0x61, 0x16, 0xbd, 0xc0, 0xbb,
    0xa7, 0x3d, 0x07, 0x99, 0x10, 0x3d, 0xcb, 0x15, 0xb9, 0x3a,
    0xe1, 0xc9, 0x5b, 0x3d, 0xb5, 0x61, 0x96, 0xbc, 0x28, 0xa7,
    0xc4, 0x3d, 0xe1, 0xc9, 0x5b, 0xbd, 0xe1, 0xc9, 0xdb, 0x3c,
    0x12, 0xf3, 0x21, 0x3c, 0x84, 0x38, 0x50, 0x3c, 0x9a, 0xec,
    0xf2, 0x3d, 0x3e, 0x5b, 0x67, 0x3c, 0x28, 0xa7, 0x44, 0x3d,
    0xc5, 0x68, 0xb0, 0x3d, 0x79, 0xde, 0xbe, 0x3d, 0xf7, 0x7d,
    0x7e, 0xbc, 0xec, 0x23, 0xed, 0xbd, 0xc0, 0xbb, 0xa7, 0xbd,
    0xaf, 0xb4, 0x8d, 0x3d, 0x84, 0x38, 0x50, 0x3c, 0x07, 0x99,
    0x90, 0x3d, 0xcb, 0x15, 0x39, 0x3d, 0xa0, 0x99, 0xfb, 0xbd,
    0x9a, 0xec, 0x72, 0x3d, 0xcb, 0x15, 0xb9, 0xbc, 0x12, 0xf3,
    0x21, 0x3c, 0x0c, 0x46, 0x99, 0x3d, 0x28, 0xa7, 0xc4, 0xbd,
    0x84, 0x38, 0xd0, 0xbc, 0xe7, 0x76, 0xe4, 0x3d, 0x12, 0xf3,
    0x21, 0x3c, 0x1d, 0x4d, 0x33, 0xbd, 0xec, 0x23, 0xed, 0xbd,
    0x6e, 0x84, 0xad, 0xbc, 0x00, 0x00, 0x00, 0x00, 0xcb, 0x15,
    0xb9, 0x3b, 0x63, 0x2a, 0x1c, 0x3d, 0x58, 0xd0, 0x8a, 0x3c,
    0x01, 0xec, 0x87, 0xbd, 0x9a, 0xec, 0xf2, 0xbc, 0x3e, 0x5b,
    0x67, 0xbc, 0x95, 0x3f, 0xea, 0xbd, 0xec, 0x23, 0x6d, 0xbd,
    0xcb, 0x15, 0xb9, 0x3c, 0x1d, 0x4d, 0xb3, 0xbd, 0x28, 0xa7,
    0x44, 0x3d, 0x58, 0xd0, 0x0a, 0xbe, 0x07, 0x99, 0x90, 0xbd,
    0x07, 0x99, 0x10, 0xbd, 0x58, 0xd0, 0x8a, 0xbd, 0x33, 0x01,
    0x56, 0x3d, 0xcb, 0x15, 0xb9, 0x3a, 0xc0, 0xbb, 0x27, 0x3d,
    0x6e, 0x84, 0xad, 0x3d, 0x3e, 0x5b, 0xe7, 0xbb, 0x8a, 0xe5,
    0xd8, 0xbd, 0x28, 0xa7, 0xc4, 0xbd, 0x28, 0xa7, 0x44, 0xbd,
    0x53, 0x23, 0x02, 0xbe, 0x63, 0x2a, 0x1c, 0xbd, 0xc0, 0xbb,
    0xa7, 0xbd, 0x79, 0xde, 0xbe, 0xbd, 0x28, 0xa7, 0xc4, 0xbc,
    0x07, 0x99, 0x10, 0xbd, 0xaa, 0x07, 0x05, 0xbd, 0xc5, 0x68,
    0xb0, 0x3d, 0x9a, 0xec, 0xf2, 0xbc, 0x0c, 0x46, 0x99, 0x3d,
    0x8f, 0x92, 0x61, 0x3d, 0x01, 0xec, 0x87, 0xbd, 0x2d, 0x5e,
    0x09, 0xbe, 0x58, 0xd0, 0x8a, 0xbc, 0x07, 0x99, 0x10, 0xbe,
    0x3e, 0x5b, 0xe7, 0xbc, 0x00, 0x00, 0x00, 0x00, 0xd5, 0x79,
    0x06, 0xbe, 0xdc, 0x1c, 0xd3, 0x3d, 0x58, 0xd0, 0x0a, 0x3d,
    0x84, 0x38, 0xd0, 0x3c, 0x84, 0x38, 0x50, 0x3c, 0x58, 0xd0,
    0x8a, 0xbc, 0x3e, 0x5b, 0xe7, 0xbb, 0x3e, 0x5b, 0xe7, 0xbc,
    0x53, 0x23, 0x02, 0xbe, 0x58, 0xd0, 0x0a, 0xbe, 0x12, 0xf3,
    0x21, 0x3c, 0xf7, 0x7d, 0x7e, 0xbd, 0xcb, 0x15, 0xb9, 0x3b,
    0x79, 0xde, 0xbe, 0x3d, 0xc0, 0xbb, 0xa7, 0x3d, 0xe1, 0xc9,
    0x5b, 0xbd, 0xc0, 0xbb, 0x27, 0xbd, 0xcb, 0x15, 0x39, 0xbc,
    0x07, 0x99, 0x10, 0xbd, 0x95, 0x3f, 0xea, 0xbd, 0x7f, 0x8b,
    0xc7, 0xbd, 0x6e, 0x84, 0xad, 0xbc, 0x28, 0xa7, 0xc4, 0x3c,
    0xf2, 0xd0, 0xf5, 0xbd, 0x12, 0xf3, 0xa1, 0x3d, 0x22, 0xfa,
    0xbb, 0x3d, 0xdc, 0x1c, 0xd3, 0x3d, 0x9a, 0xec, 0x72, 0xbd,
    0x12, 0xf3, 0x21, 0x3c, 0x49, 0xb5, 0x78, 0x3d, 0x84, 0x38,
    0xd0, 0x3d, 0x43, 0x08, 0xf0, 0xbd, 0x3e, 0x5b, 0xe7, 0xbd,
    0x53, 0x23, 0x82, 0xbd, 0x5e, 0x7d, 0x93, 0x3d, 0x3e, 0x5b,
    0xe7, 0xbc, 0x79, 0xde, 0x3e, 0x3d, 0xe1, 0xc9, 0x5b, 0xbd,
    0xf2, 0xd0, 0xf5, 0x3d, 0xb5, 0x61, 0x96, 0x3c, 0x33, 0x01,
    0x56, 0xbd, 0x6e, 0x84, 0xad, 0x3d, 0xcb, 0x15, 0xb9, 0xbc,
    0xf7, 0x7d, 0xfe, 0xbc, 0x12, 0xf3, 0xa1, 0xbc, 0x27, 0xb1,
    0x00, 0x3e, 0x58, 0xd0, 0x0a, 0x3d, 0xba, 0x0e, 0x9f, 0xbd,
    0xcb, 0x15, 0xb9, 0x3d, 0xb5, 0x61, 0x16, 0xbd, 0x17, 0xa0,
    0xaa, 0xbd, 0xf7, 0x7d, 0x7e, 0x3c, 0x9a, 0xec, 0xf2, 0xbc,
    0x2d, 0x54, 0xcd, 0x3d, 0x74, 0x31, 0xb6, 0x3d, 0xf2, 0xd0,
    0xf5, 0xbd, 0x1d, 0x4d, 0x33, 0x3d, 0xd5, 0x79, 0x06, 0xbe,
    0x3e, 0x5b, 0xe7, 0x3b, 0x49, 0xb5, 0xf8, 0x3d, 0x33, 0x01,
    0xd6, 0x3d, 0x0c, 0x46, 0x99, 0x3d, 0x7f, 0x8b, 0xc7, 0xbd,
    0x9a, 0xec, 0xf2, 0x3c, 0xe1, 0xc9, 0xdb, 0xbc, 0xcb, 0x15,
    0xb9, 0x3b, 0x0c, 0x46, 0x99, 0xbd, 0x6e, 0x84, 0xad, 0xbd,
    0xaa, 0x07, 0x85, 0xbd, 0xaf, 0xb4, 0x8d, 0x3d, 0x84, 0x38,
    0x50, 0xbd, 0x58, 0xd0, 0x8a, 0x3d, 0x12, 0xf3, 0xa1, 0xbd,
    0xc5, 0x68, 0xb0, 0xbd, 0x12, 0xf3, 0xa1, 0x3c, 0x6e, 0x84,
    0xad, 0x3c, 0x58, 0xd0, 0x0a, 0x3c, 0x79, 0xde, 0xbe, 0x3d,
    0x9a, 0xec, 0xf2, 0x3d, 0xdc, 0x1c, 0xd3, 0xbd, 0x28, 0xa7,
    0xc4, 0x3c, 0x3e, 0x5b, 0xe7, 0x3d, 0x6e, 0x84, 0xad, 0x3d,
    0x53, 0x23, 0x02, 0x3e, 0x63, 0x2a, 0x9c, 0xbd, 0x12, 0xf3,
    0x21, 0x3c, 0xd1, 0xc2, 0xc1, 0xbd, 0xe7, 0x76, 0xe4, 0xbd,
    0x84, 0x38, 0x50, 0x3c, 0x38, 0xae, 0xde, 0x3d, 0xe1, 0xc9,
    0xdb, 0xbc, 0xaa, 0x07, 0x05, 0x3d, 0xec, 0x23, 0x6d, 0x3d,
    0x3e, 0x5b, 0xe7, 0xbd, 0x2d, 0x54, 0xcd, 0xbd, 0x84, 0x38,
    0x50, 0xbc, 0x12, 0xf3, 0x21, 0x3c, 0xe1, 0xc9, 0xdb, 0x3c,
    0x2d, 0x5e, 0x09, 0x3e, 0x74, 0x31, 0xb6, 0x3d, 0xb5, 0x61,
    0x96, 0x3c, 0x22, 0xfa, 0xbb, 0x3d, 0x49, 0xb5, 0x78, 0xbd,
    0x53, 0x23, 0x82, 0xbd, 0xcb, 0x15, 0xb9, 0x3c, 0xd5, 0x79,
    0x06, 0xbe, 0xec, 0x23, 0x6d, 0xbd, 0xcb, 0x15, 0xb9, 0xbb,
    0x95, 0x3f, 0xea, 0xbd, 0x3e, 0x5b, 0xe7, 0xbb, 0x07, 0x99,
    0x10, 0xbd, 0x84, 0x38, 0xd0, 0x3d, 0x84, 0x38, 0x50, 0x3c,
    0x7e, 0x95, 0x03, 0x3e, 0xcb, 0x15, 0xb9, 0x3b, 0x07, 0x99,
    0x10, 0xbd, 0x58, 0xd0, 0x0a, 0xbd, 0x79, 0xde, 0xbe, 0xbd,
    0xc5, 0x68, 0xb0, 0x3d, 0xcb, 0x15, 0x39, 0xbb, 0x63, 0x2a,
    0x1c, 0xbd, 0x07, 0x99, 0x10, 0xbd, 0x84, 0x38, 0x50, 0xbc,
    0x3e, 0x5b, 0x67, 0x3d, 0xec, 0x23, 0x6d, 0xbd, 0x5e, 0x7d,
    0x93, 0xbd, 0x53, 0x23, 0x82, 0x3d, 0x58, 0xd0, 0x8a, 0xbb,
    0xba, 0x0e, 0x9f, 0xbd, 0xcb, 0x15, 0xb9, 0x3c, 0xa0, 0x99,
    0xfb, 0xbd, 0x49, 0xb5, 0xf8, 0xbd, 0x8f, 0x92, 0xe1, 0xbd,
    0xc0, 0xbb, 0xa7, 0x3d, 0x63, 0x2a, 0x1c, 0x3d, 0x8f, 0x92,
    0x61, 0x3d, 0x79, 0xde, 0xbe, 0xbd, 0xb5, 0x61, 0x16, 0xbd,
    0x38, 0xae, 0xde, 0xbd, 0x28, 0xa7, 0xc4, 0xbc, 0x07, 0x99,
    0x90, 0xbd, 0x33, 0x01, 0x56, 0xbd, 0x84, 0x38, 0xd0, 0xbd,
    0x27, 0xb1, 0x00, 0x3e, 0xcb, 0x15, 0xb9, 0x3c, 0xf7, 0x7d,
    0x7e, 0xbd, 0x84, 0x38, 0xd0, 0x3d, 0xaa, 0x07, 0x05, 0xbd,
    0xcb, 0x15, 0x39, 0x3c, 0x84, 0x38, 0xd0, 0xbc, 0x9a, 0xec,
    0x72, 0xbd, 0x0c, 0x46, 0x99, 0x3d, 0x12, 0xf3, 0xa1, 0x3d,
    0x84, 0x38, 0x50, 0x3c, 0x28, 0xa7, 0x44, 0x3d, 0x27, 0xb1,
    0x00, 0x3e, 0x01, 0xec, 0x87, 0xbd, 0x74, 0x31, 0xb6, 0x3d,
    0x12, 0xf3, 0x21, 0x3c, 0x28, 0xa7, 0xc4, 0x3d, 0x79, 0xde,
    0xbe, 0x3d, 0x1d, 0x4d, 0x33, 0x3d, 0x07, 0x99, 0x10, 0x3d,
    0xba, 0x0e, 0x9f, 0x3d, 0xcb, 0x15, 0xb9, 0xbd, 0x0c, 0x46,
    0x99, 0xbd, 0x53, 0x23, 0x82, 0xbd, 0xc5, 0x68, 0xb0, 0xbd,
    0xf7, 0x7d, 0x7e, 0x3c, 0x00, 0x00, 0x00, 0x00, 0x28, 0xa7,
    0xc4, 0xbc, 0x63, 0x2a, 0x9c, 0xbd, 0x2d, 0x54, 0xcd, 0x3d,
    0xd1, 0xc2, 0xc1, 0xbd, 0x28, 0xa7, 0x44, 0x3d, 0xf7, 0x7d,
    0x7e, 0x3c, 0xd6, 0x6f, 0xca, 0xbd, 0xd6, 0x6f, 0xca, 0xbd,
    0x3e, 0x5b, 0xe7, 0x3b, 0x01, 0xec, 0x87, 0x3d, 0x58, 0xd0,
    0x8a, 0x3c, 0xaa, 0x07, 0x85, 0xbd, 0xf7, 0x7d, 0x7e, 0x3d,
    0xc0, 0xbb, 0x27, 0xbd, 0x49, 0xb5, 0xf8, 0x3d, 0xc0, 0xbb,
    0x27, 0xbd, 0xc5, 0x68, 0xb0, 0x3d, 0xe1, 0xc9, 0xdb, 0xbc,
    0xcb, 0x15, 0x39, 0xbb, 0xb5, 0x61, 0x96, 0x3c, 0xe7, 0x76,
    0xe4, 0x3d, 0xc0, 0xbb, 0x27, 0x3d, 0xd6, 0x6f, 0xca, 0xbd,
    0x0c, 0x46, 0x99, 0x3d, 0xaa, 0x07, 0x85, 0xbd, 0x8a, 0xe5,
    0xd8, 0x3d, 0x38, 0xae, 0xde, 0xbd, 0x33, 0x01, 0x56, 0xbd,
    0x12, 0xf3, 0xa1, 0xbd, 0xcb, 0x15, 0xb9, 0xbd, 0x3e, 0x5b,
    0xe7, 0xbc, 0xcb, 0x15, 0xb9, 0x3b, 0x69, 0xd7, 0xa4, 0xbd,
    0xdb, 0x26, 0x0f, 0x3e, 0x69, 0xd7, 0xa4, 0xbd, 0x8f, 0x92,
    0xe1, 0x3d, 0x12, 0xf3, 0xa1, 0xbd, 0xaa, 0x07, 0x85, 0xbd,
    0x27, 0xb1, 0x00, 0xbe, 0xaf, 0xb4, 0x8d, 0x3d, 0x3e, 0x5b,
    0xe7, 0xbc, 0x01, 0xec, 0x87, 0xbd, 0xec, 0x23, 0x6d, 0xbd,
    0x79, 0xde, 0xbe, 0x3d, 0xe1, 0xc9, 0xdb, 0x3d, 0xba, 0x0e,
    0x9f, 0xbd, 0x6e, 0x84, 0xad, 0xbc, 0x63, 0x2a, 0x9c, 0x3d,
    0xc0, 0xbb, 0x27, 0xbd, 0xe7, 0x76, 0xe4, 0x3d, 0xcb, 0x15,
    0x39, 0xbd, 0x9a, 0xec, 0xf2, 0xbc, 0x7f, 0x8b, 0xc7, 0x3d,
    0x5e, 0x7d, 0x93, 0xbd, 0x49, 0xb5, 0x78, 0xbd, 0x84, 0x42,
    0x0c, 0x3e, 0x69, 0xd7, 0xa4, 0xbd, 0xaa, 0x07, 0x05, 0x3d,
    0x3e, 0x5b, 0xe7, 0xbd, 0x07, 0x99, 0x90, 0xbd, 0x1d, 0x4d,
    0x33, 0xbd, 0xcb, 0x15, 0xb9, 0x3a, 0x07, 0x99, 0x10, 0x3d,
    0xb5, 0x61, 0x96, 0xbc, 0x1d, 0x4d, 0x33, 0x3d, 0x1d, 0x4d,
    0xb3, 0x3d, 0x3e, 0x5b, 0xe7, 0x3d, 0xb5, 0x61, 0x96, 0xbc,
    0x84, 0x38, 0x50, 0xbc, 0xdb, 0x26, 0x0f, 0x3e, 0x2d, 0x5e,
    0x09, 0x3e, 0xd6, 0x6f, 0xca, 0xbd, 0x01, 0xec, 0x87, 0x3d,
    0xcb, 0x15, 0xb9, 0xbb, 0xe1, 0xc9, 0xdb, 0x3c, 0xcb, 0x15,
    0xb9, 0xbd, 0x07, 0x99, 0x10, 0x3d, 0x58, 0xd0, 0x0a, 0x3c,
    0xd5, 0x79, 0x06, 0x3e, 0x49, 0xb5, 0x78, 0xbd, 0x53, 0x23,
    0x82, 0x3d, 0xf7, 0x7d, 0xfe, 0xbc, 0x8a, 0xe5, 0xd8, 0x3d,
    0x01, 0xec, 0x87, 0x3d, 0xcb, 0x15, 0xb9, 0xbc, 0x6e, 0x84,
    0x2d, 0xbd, 0x9a, 0xec, 0xf2, 0x3d, 0x58, 0xd0, 0x0a, 0x3c,
    0x58, 0xd0, 0x0a, 0x3d, 0x8f, 0x92, 0xe1, 0x3d, 0x53, 0x23,
    0x02, 0xbe, 0x58, 0xd0, 0x8a, 0xbb, 0xc5, 0x68, 0xb0, 0x3d,
    0x33, 0x01, 0xd6, 0xbd, 0xaa, 0x07, 0x05, 0xbd, 0x3e, 0x5b,
    0x67, 0x3d, 0x33, 0x01, 0xd6, 0xbd, 0x3e, 0x5b, 0xe7, 0x3b,
    0xd5, 0x79, 0x06, 0x3e, 0x2d, 0x5e, 0x09, 0x3e, 0x12, 0xf3,
    0xa1, 0x3c, 0x9a, 0xec, 0x72, 0x3d, 0x58, 0xd0, 0x0a, 0xbd,
    0xec, 0x23, 0x6d, 0xbd, 0x9a, 0xec, 0xf2, 0x3c, 0xcb, 0x15,
    0xb9, 0x3c, 0x74, 0x31, 0xb6, 0x3d, 0xc0, 0xbb, 0xa7, 0xbd,
    0xaf, 0xb4, 0x8d, 0xbd, 0xe1, 0xc9, 0x5b, 0xbd, 0xe7, 0x76,
    0xe4, 0xbd, 0xaa, 0x07, 0x05, 0xbd, 0xd6, 0x6f, 0xca, 0xbd,
    0x3e, 0x5b, 0xe7, 0x3b, 0xb5, 0x61, 0x16, 0xbd, 0x53, 0x23,
    0x02, 0x3e, 0x1d, 0x4d, 0x33, 0xbd, 0x84, 0x38, 0x50, 0xbd,
    0x33, 0x01, 0x56, 0x3d, 0xb5, 0x61, 0x16, 0xbd, 0x12, 0xf3,
    0x21, 0x3c, 0xaa, 0x07, 0x85, 0xbd, 0x3e, 0x5b, 0x67, 0xbd,
    0x07, 0x99, 0x10, 0xbd, 0x38, 0xae, 0xde, 0xbd, 0x27, 0xb1,
    0x00, 0x3e, 0x5e, 0x7d, 0x93, 0x3d, 0x12, 0xf3, 0xa1, 0xbc,
    0xcb, 0x15, 0x39, 0xbd, 0x00, 0x00, 0x00, 0x00, 0x9a, 0xec,
    0xf2, 0xbc, 0x3e, 0x5b, 0xe7, 0xbb, 0xc0, 0xbb, 0xa7, 0x3d,
    0x95, 0x3f, 0xea, 0x3d, 0x33, 0x01, 0x56, 0x3d, 0x00, 0x00,
    0x00, 0x00, 0x33, 0x01, 0xd6, 0x3d, 0x79, 0xde, 0xbe, 0xbd,
    0xaa, 0x07, 0x85, 0xbd, 0x2d, 0x54, 0xcd, 0xbd, 0xcb, 0x15,
    0xb9, 0x3a, 0x84, 0x38, 0xd0, 0xbc, 0x3e, 0x5b, 0x67, 0x3c,
    0x84, 0x38, 0xd0, 0x3d, 0xd1, 0xc2, 0xc1, 0xbd, 0x3e, 0x5b,
    0xe7, 0xbd, 0x28, 0xa7, 0xc4, 0xbc, 0x9a, 0xec, 0x72, 0xbd,
    0xaa, 0x07, 0x05, 0x3e, 0x07, 0x99, 0x10, 0xbd, 0x49, 0xb5,
    0x78, 0x3d, 0xcb, 0x15, 0x39, 0x3d, 0xd6, 0x6f, 0xca, 0x3d,
    0x28, 0xa7, 0xc4, 0xbd, 0xd1, 0xc2, 0xc1, 0xbd, 0x84, 0x38,
    0x50, 0xbc, 0xaf, 0xb4, 0x8d, 0xbd, 0xaf, 0xb4, 0x8d, 0xbd,
    0x58, 0xd0, 0x8a, 0xbd, 0x27, 0xb1, 0x00, 0x3e, 0x79, 0xde,
    0xbe, 0xbd, 0x0c, 0x46, 0x99, 0xbd, 0xec, 0x23, 0x6d, 0xbd,
    0x07, 0x99, 0x10, 0x3d, 0x9a, 0xec, 0x72, 0xbd, 0xf7, 0x7d,
    0xfe, 0x3c, 0xcb, 0x15, 0xb9, 0xbb, 0x95, 0x3f, 0xea, 0x3d,
    0xcb, 0x15, 0xb9, 0x3b, 0x58, 0xd0, 0x8a, 0xbd, 0xcb, 0x15,
    0x39, 0xbc, 0x6e, 0x84, 0xad, 0x3c, 0xc0, 0xbb, 0x27, 0x3d,
    0xec, 0x23, 0xed, 0xbd, 0x0c, 0x46, 0x99, 0x3d, 0x33, 0x01,
    0x56, 0xbd, 0x63, 0x2a, 0x9c, 0x3d, 0x3e, 0x5b, 0x67, 0xbd,
    0xcb, 0x15, 0x39, 0xbb, 0x74, 0x31, 0xb6, 0x3d, 0x3e, 0x5b,
    0x67, 0xbd, 0x01, 0xec, 0x87, 0xbd, 0x28, 0xa7, 0xc4, 0xbc,
    0x01, 0xec, 0x87, 0xbd, 0x49, 0xb5, 0x78, 0xbd, 0xc0, 0xbb,
    0xa7, 0xbd, 0xcb, 0x15, 0x39, 0x3c, 0x84, 0x38, 0x50, 0xbc,
    0x84, 0x38, 0xd0, 0x3d, 0xe7, 0x76, 0xe4, 0x3d, 0x58, 0xd0,
    0x0a, 0xbd, 0xa0, 0x99, 0xfb, 0x3d, 0xcb, 0x15, 0xb9, 0x3d,
    0x9a, 0xec, 0xf2, 0x3d, 0x95, 0x3f, 0xea, 0x3d, 0x79, 0xde,
    0x3e, 0x3d, 0x58, 0xd0, 0x0a, 0x3d, 0x84, 0x38, 0xd0, 0x3c,
    0x74, 0x31, 0xb6, 0xbd, 0xf2, 0xd0, 0xf5, 0x3d, 0xdc, 0x1c,
    0xd3, 0xbd, 0x27, 0xb1, 0x00, 0x3e, 0xe1, 0xc9, 0xdb, 0x3d,
    0x84, 0x38, 0x50, 0xbc, 0xdc, 0x1c, 0xd3, 0xbd, 0xc0, 0xbb,
    0xa7, 0x3d, 0x07, 0x99, 0x90, 0xbd, 0x43, 0x08, 0xf0, 0x3d,
    0x84, 0x38, 0x50, 0xbd, 0xcb, 0x15, 0x39, 0x3d, 0xaf, 0xb4,
    0x8d, 0xbd, 0x84, 0x38, 0xd0, 0x3c, 0xba, 0x0e, 0x9f, 0x3d,
    0x01, 0xec, 0x87, 0x3d, 0x53, 0x23, 0x02, 0x3e, 0xb5, 0x61,
    0x16, 0x3d, 0x79, 0xde, 0x3e, 0x3d, 0x1d, 0x4d, 0x33, 0x3d,
    0xcb, 0x15, 0xb9, 0x3b, 0x58, 0xd0, 0x8a, 0xbd, 0xb5, 0x61,
    0x16, 0x3d, 0x63, 0x2a, 0x9c, 0xbd, 0x3e, 0x5b, 0xe7, 0xbd,
    0xdc, 0x1c, 0xd3, 0x3d, 0xf7, 0x7d, 0xfe, 0x3d, 0x5e, 0x7d,
    0x93, 0x3d, 0xcb, 0x15, 0xb9, 0xbd, 0x84, 0x38, 0xd0, 0x3c,
    0x79, 0xde, 0xbe, 0x3d, 0xf7, 0x7d, 0xfe, 0x3d, 0xc0, 0xbb,
    0xa7, 0x3d, 0x3e, 0x5b, 0x67, 0xbc, 0x17, 0xa0, 0xaa, 0x3d,
    0xc0, 0xbb, 0x27, 0xbd, 0x3e, 0x5b, 0x67, 0x3d, 0x0c, 0x46,
    0x99, 0xbd, 0x6e, 0x84, 0x2d, 0x3d, 0x28, 0xa7, 0x44, 0x3d,
    0x9a, 0xec, 0x72, 0xbd, 0x07, 0x99, 0x90, 0x3d, 0x28, 0xa7,
    0xc4, 0x3c, 0xd1, 0xc2, 0xc1, 0xbd, 0x22, 0xfa, 0xbb, 0xbd,
    0x3e, 0x5b, 0xe7, 0xbd, 0xc5, 0x68, 0xb0, 0x3d, 0x53, 0x23,
    0x02, 0x3e, 0x95, 0x3f, 0xea, 0xbd, 0xf7, 0x7d, 0x7e, 0xbc,
    0x3e, 0x5b, 0xe7, 0x3d, 0xb5, 0x61, 0x96, 0xbc, 0xcb, 0x15,
    0x39, 0x3c, 0x0c, 0x46, 0x99, 0xbd, 0x01, 0xec, 0x87, 0xbd,
    0xb5, 0x61, 0x16, 0x3d, 0xe1, 0xc9, 0xdb, 0x3d, 0xf2, 0xd0,
    0xf5, 0xbd, 0x5e, 0x7d, 0x93, 0xbd, 0xf2, 0xd0, 0xf5, 0xbd,
    0xdc, 0x1c, 0xd3, 0xbd, 0x00, 0x00, 0x00, 0x00, 0x3e, 0x5b,
    0xe7, 0xbb, 0x95, 0x3f, 0xea, 0x3d, 0x12, 0xf3, 0xa1, 0x3d,
    0xb5, 0x61, 0x96, 0x3d, 0xc0, 0xbb, 0x27, 0x3d, 0x6e, 0x84,
    0xad, 0xbc, 0x95, 0x3f, 0xea, 0x3d, 0x5e, 0x7d, 0x93, 0x3d,
    0xcb, 0x15, 0xb9, 0x3d, 0xcb, 0x15, 0xb9, 0xbc, 0xd6, 0x6f,
    0xca, 0xbd, 0xdc, 0x1c, 0xd3, 0x3d, 0x58, 0xd0, 0x0a, 0xbd,
    0xaa, 0x07, 0x05, 0xbd, 0x6e, 0x84, 0x2d, 0x3d, 0xf7, 0x7d,
    0xfe, 0x3d, 0xd1, 0xc2, 0xc1, 0x3d, 0x7f, 0x8b, 0xc7, 0xbd,
    0x84, 0x38, 0x50, 0xbc, 0xc0, 0xbb, 0x27, 0xbd, 0x79, 0xde,
    0x3e, 0x3d, 0xc5, 0x68, 0xb0, 0xbd, 0x84, 0x38, 0xd0, 0x3c,
    0xc5, 0x68, 0xb0, 0xbd, 0x69, 0xd7, 0xa4, 0x3d, 0x3e, 0x5b,
    0x67, 0xbd, 0x49, 0xb5, 0xf8, 0x3d, 0xec, 0x23, 0xed, 0xbd,
    0x53, 0x23, 0x02, 0x3e, 0x5e, 0x7d, 0x93, 0xbd, 0x28, 0xa7,
    0x44, 0x3d, 0x58, 0xd0, 0x8a, 0x3d, 0x1d, 0x4d, 0xb3, 0xbd,
    0x17, 0xa0, 0xaa, 0xbd, 0x07, 0x99, 0x90, 0x3d, 0x58, 0xd0,
    0x8a, 0xbd, 0x5e, 0x7d, 0x93, 0xbd, 0x33, 0x01, 0x56, 0x3d,
    0x12, 0xf3, 0x21, 0xbc, 0xcb, 0x15, 0x39, 0x3b, 0x27, 0xb1,
    0x00, 0x3e, 0x1d, 0x4d, 0x33, 0x3d, 0xcb, 0x15, 0xb9, 0x3d,
    0x07, 0x99, 0x90, 0x3d, 0x28, 0xa7, 0xc4, 0xbc, 0xcb, 0x15,
    0x39, 0xbb, 0x3e, 0x5b, 0x67, 0x3d, 0xd6, 0x6f, 0x4a, 0xbd,
    0xb5, 0x61, 0x96, 0x3d, 0x69, 0xd7, 0xa4, 0x3d, 0x12, 0xf3,
    0x21, 0x3c, 0x79, 0xde, 0x3e, 0xbd, 0x6e, 0x84, 0xad, 0x3d,
    0x53, 0x23, 0x02, 0xbe, 0xc0, 0xbb, 0xa7, 0x3d, 0xcb, 0x15,
    0xb9, 0xba, 0x27, 0xb1, 0x00, 0x3e, 0x53, 0x23, 0x02, 0xbe,
    0x07, 0x99, 0x90, 0xbd, 0x9a, 0xec, 0xf2, 0x3c, 0x07, 0x99,
    0x10, 0xbd, 0x33, 0x01, 0x56, 0x3d, 0x27, 0xb1, 0x00, 0x3e,
    0xb5, 0x61, 0x16, 0x3d, 0xcb, 0x15, 0x39, 0x3b, 0xf7, 0x7d,
    0x7e, 0xbd, 0x58, 0xd0, 0x0a, 0xbd, 0xec, 0x23, 0xed, 0x3d,
    0x1d, 0x4d, 0x33, 0x3d, 0xb5, 0x61, 0x16, 0x3d, 0x84, 0x38,
    0xd0, 0x3c, 0x84, 0x38, 0x50, 0x3c, 0x33, 0x01, 0xd6, 0xbd,
    0x28, 0xa7, 0xc4, 0xbc, 0x28, 0xa7, 0xc4, 0xbd, 0xe7, 0x76,
    0xe4, 0x3d, 0xcb, 0x15, 0xb9, 0xba, 0xf2, 0xd0, 0xf5, 0x3d,
    0x58, 0xd0, 0x0a, 0xbc, 0x8f, 0x92, 0xe1, 0x3d, 0xf2, 0xd0,
    0xf5, 0xbd, 0x1d, 0x4d, 0xb3, 0xbd, 0xe1, 0xc9, 0xdb, 0x3c,
    0xcb, 0x15, 0xb9, 0xbd, 0x38, 0xae, 0xde, 0x3d, 0x6e, 0x84,
    0x2d, 0xbd, 0x12, 0xf3, 0x21, 0x3d, 0xcb, 0x15, 0x39, 0xbc,
    0x12, 0xf3, 0xa1, 0x3d, 0xcb, 0x15, 0xb9, 0x3b, 0xc0, 0xbb,
    0xa7, 0xbd, 0x1d, 0x4d, 0x33, 0x3d, 0x74, 0x31, 0xb6, 0xbd,
    0xf2, 0xd0, 0xf5, 0x3d, 0xcb, 0x15, 0xb9, 0x3d, 0x12, 0xf3,
    0x21, 0xbc, 0x63, 0x2a, 0x9c, 0xbd, 0x07, 0x99, 0x90, 0x3d,
    0x28, 0xa7, 0xc4, 0xbd, 0x8a, 0xe5, 0xd8, 0x3d, 0xf2, 0xd0,
    0xf5, 0xbd, 0xcb, 0x15, 0x39, 0x3b, 0x6e, 0x84, 0xad, 0xbc,
    0x33, 0x01, 0x56, 0xbd, 0x01, 0xec, 0x87, 0xbd, 0x00, 0x00,
    0x00, 0x00, 0x9a, 0xec, 0xf2, 0x3c, 0x9a, 0xec, 0x72, 0xbd,
    0x58, 0xd0, 0x0a, 0xbd, 0x84, 0x38, 0x50, 0x3c, 0x12, 0xf3,
    0xa1, 0xbd, 0xa0, 0x99, 0xfb, 0xbd, 0x9a, 0xec, 0xf2, 0xbc,
    0x9a, 0xec, 0xf2, 0xbc, 0x79, 0xde, 0x3e, 0xbd, 0x6e, 0x84,
    0x2d, 0x3d, 0xf2, 0xd0, 0xf5, 0x3d, 0x3e, 0x5b, 0xe7, 0xbd,
    0x1d, 0x4d, 0xb3, 0xbd, 0xaf, 0xb4, 0x8d, 0xbd, 0x58, 0xd0,
    0x0a, 0xbd, 0x53, 0x23, 0x02, 0x3e, 0xf7, 0x7d, 0xfe, 0x3c,
    0xcb, 0x15, 0x39, 0xbd, 0x28, 0xa7, 0x44, 0xbd, 0x27, 0xb1,
    0x00, 0xbe, 0x3e, 0x5b, 0xe7, 0x3c, 0xaa, 0x07, 0x05, 0x3d,
    0xf7, 0x7d, 0xfe, 0xbc, 0x12, 0xf3, 0x21, 0xbd, 0x63, 0x2a,
    0x9c, 0x3d, 0x53, 0x23, 0x82, 0xbd, 0xc0, 0xbb, 0x27, 0x3d,
    0x12, 0xf3, 0xa1, 0xbc, 0xe1, 0xc9, 0xdb, 0xbc, 0x07, 0x99,
    0x10, 0xbd, 0x49, 0xb5, 0x78, 0x3d, 0xec, 0x23, 0x6d, 0xbd,
    0x43, 0x08, 0xf0, 0x3d, 0x79, 0xde, 0xbe, 0xbd, 0xb5, 0x61,
    0x96, 0xbc, 0xc5, 0x68, 0xb0, 0x3d, 0x84, 0x38, 0xd0, 0xbd,
    0xf7, 0x7d, 0x7e, 0x3c, 0x53, 0x23, 0x02, 0x3e, 0x12, 0xf3,
    0x21, 0xbc, 0x3e, 0x5b, 0x67, 0xbc, 0x07, 0x99, 0x90, 0x3d,
    0x7f, 0x8b, 0xc7, 0x3d, 0xdc, 0x1c, 0xd3, 0xbd, 0xb5, 0x61,
    0x16, 0x3d, 0xb5, 0x61, 0x96, 0xbd, 0xaa, 0x07, 0x05, 0xbd,
    0x84, 0x38, 0xd0, 0xbd, 0xf7, 0x7d, 0xfe, 0xbd, 0x8f, 0x92,
    0xe1, 0xbd, 0xcb, 0x15, 0xb9, 0x3d, 0x84, 0x38, 0xd0, 0x3d,
    0x2d, 0x54, 0xcd, 0x3d, 0x3e, 0x5b, 0xe7, 0xbd, 0xc0, 0xbb,
    0xa7, 0xbd, 0x8a, 0xe5, 0xd8, 0xbd, 0x84, 0x38, 0x50, 0xbc,
    0x53, 0x23, 0x02, 0xbe, 0x07, 0x99, 0x10, 0xbd, 0x58, 0xd0,
    0x8a, 0x3d, 0x9a, 0xec, 0xf2, 0x3c, 0x28, 0xa7, 0xc4, 0xbd,
    0x6e, 0x84, 0xad, 0xbd, 0xf2, 0xd0, 0xf5, 0xbd, 0xc0, 0xbb,
    0x27, 0x3d, 0x1d, 0x4d, 0xb3, 0xbd, 0x84, 0x38, 0x50, 0x3c,
    0x33, 0x01, 0x56, 0x3d, 0xcb, 0x15, 0xb9, 0x3b, 0xf2, 0xd0,
    0xf5, 0xbd, 0x38, 0xae, 0xde, 0x3d, 0xcb, 0x15, 0xb9, 0xbb,
    0xf7, 0x7d, 0xfe, 0xbc, 0xe1, 0xc9, 0x5b, 0xbd, 0xc5, 0x68,
    0xb0, 0x3d, 0xcb, 0x15, 0xb9, 0xbc, 0xcb, 0x15, 0xb9, 0xbb,
    0xcb, 0x15, 0x39, 0x3b, 0xcb, 0x15, 0x39, 0x3b, 0x17, 0xa0,
    0xaa, 0x3d, 0x00, 0x00, 0x00, 0x00, 0xec, 0x23, 0xed, 0x3d,
    0x9a, 0xec, 0xf2, 0x3d, 0xba, 0x0e, 0x9f, 0xbd, 0x07, 0x99,
    0x10, 0xbd, 0xcb, 0x15, 0x39, 0x3b, 0x1d, 0x4d, 0xb3, 0xbd,
    0x3e, 0x5b, 0xe7, 0x3d, 0xb5, 0x61, 0x96, 0x3d, 0x12, 0xf3,
    0x21, 0x3d, 0xec, 0x23, 0x6d, 0x3d, 0x58, 0xd0, 0x8a, 0xbd,
    0x12, 0xf3, 0x21, 0x3d, 0xcb, 0x15, 0x39, 0x3d, 0xaf, 0xb4,
    0x8d, 0x3d, 0x0c, 0x46, 0x99, 0x3d, 0x3e, 0x5b, 0xe7, 0x3d,
    0xaa, 0x07, 0x85, 0x3d, 0xc0, 0xbb, 0xa7, 0x3d, 0x6e, 0x84,
    0xad, 0x3c, 0x3e, 0x5b, 0xe7, 0xbc, 0x33, 0x01, 0x56, 0xbd,
    0x58, 0xd0, 0x0a, 0xbd, 0xcb, 0x15, 0xb9, 0xbb, 0xa0, 0x99,
    0xfb, 0x3d, 0x79, 0xde, 0x3e, 0x3d, 0xe7, 0x76, 0xe4, 0xbd,
    0xec, 0x23, 0xed, 0xbd, 0x12, 0xf3, 0xa1, 0x3c, 0x12, 0xf3,
    0x21, 0xbd, 0x6e, 0x84, 0xad, 0x3c, 0xc5, 0x68, 0xb0, 0xbd,
    0xcb, 0x15, 0xb9, 0x3b, 0xc0, 0xbb, 0xa7, 0xbd, 0x84, 0x38,
    0xd0, 0x3c, 0x07, 0x99, 0x10, 0xbd, 0xd6, 0x6f, 0xca, 0x3d,
    0x53, 0x23, 0x82, 0x3d, 0x58, 0xd0, 0x0a, 0x3d, 0x7e, 0x95,
    0x03, 0xbe, 0x1d, 0x4d, 0x33, 0xbd, 0x6e, 0x84, 0xad, 0x3c,
    0x6e, 0x84, 0xad, 0x3c, 0x1d, 0x4d, 0xb3, 0x3d, 0x84, 0x38,
    0x50, 0x3c, 0xb5, 0x61, 0x96, 0x3d, 0xe1, 0xc9, 0x5b, 0xbd,
    0x49, 0xb5, 0x78, 0xbd, 0xb5, 0x61, 0x96, 0x3d, 0xb5, 0x61,
    0x16, 0xbd, 0xaf, 0xb4, 0x8d, 0x3d, 0x53, 0x23, 0x82, 0xbd,
    0x69, 0xd7, 0xa4, 0x3d, 0x28, 0xa7, 0x44, 0xbd, 0x22, 0xfa,
    0xbb, 0x3d, 0x8a, 0xe5, 0xd8, 0xbd, 0x8a, 0xe5, 0xd8, 0xbd,
    0x5e, 0x7d, 0x93, 0x3d, 0x8f, 0x92, 0x61, 0xbd, 0x12, 0xf3,
    0x21, 0xbc, 0x84, 0x38, 0x50, 0x3d, 0x1d, 0x4d, 0x33, 0x3d,
    0xcb, 0x15, 0x39, 0xbd, 0x6e, 0x84, 0xad, 0xbc, 0x9a, 0xec,
    0xf2, 0xbc, 0xd6, 0x6f, 0x4a, 0xbd, 0x6e, 0x84, 0xad, 0xbd,
    0xcb, 0x15, 0xb9, 0x3d, 0x8f, 0x92, 0xe1, 0xbd, 0xcb, 0x15,
    0x39, 0x3c, 0x63, 0x2a, 0x9c, 0xbd, 0x7f, 0x8b, 0xc7, 0xbd,
    0x0c, 0x46, 0x99, 0xbd, 0x58, 0xd0, 0x8a, 0xbb, 0xba, 0x0e,
    0x9f, 0x3d, 0xe7, 0x76, 0xe4, 0x3d, 0x79, 0xde, 0xbe, 0xbd,
    0x33, 0x01, 0xd6, 0x3d, 0x63, 0x2a, 0x1c, 0xbd, 0xcb, 0x15,
    0xb9, 0x3b, 0xcb, 0x15, 0xb9, 0xbb, 0x69, 0xd7, 0xa4, 0x3d,
    0x84, 0x38, 0xd0, 0xbd, 0xcb, 0x15, 0x39, 0xbb, 0x58, 0xd0,
    0x8a, 0xbd, 0xcb, 0x15, 0x39, 0x3b, 0x38, 0xae, 0xde, 0x3d,
    0xaa, 0x07, 0x05, 0x3d, 0xa0, 0x99, 0xfb, 0x3d, 0x8f, 0x92,
    0xe1, 0x3d, 0x84, 0x38, 0x50, 0x3d, 0x07, 0x99, 0x10, 0x3e,
    0x79, 0xde, 0x3e, 0x3d, 0xb5, 0x61, 0x96, 0x3c, 0x9a, 0xec,
    0xf2, 0x3c, 0x58, 0xd0, 0x8a, 0x3d, 0x63, 0x2a, 0x9c, 0xbd,
    0xcb, 0x15, 0x39, 0x3c, 0x79, 0xde, 0xbe, 0x3d, 0x8f, 0x92,
    0xe1, 0x3d, 0x8f, 0x92, 0x61, 0xbd, 0x1d, 0x4d, 0xb3, 0xbd,
    0xe1, 0xc9, 0xdb, 0x3d, 0xb5, 0x61, 0x96, 0x3d, 0x8f, 0x92,
    0x61, 0x3d, 0x58, 0xd0, 0x8a, 0x3c, 0x01, 0xec, 0x87, 0xbd,
    0x3e, 0x5b, 0xe7, 0x3c, 0x53, 0x23, 0x82, 0xbd, 0xaf, 0xb4,
    0x8d, 0x3d, 0xaa, 0x07, 0x05, 0xbe, 0x53, 0x23, 0x02, 0xbe,
    0x58, 0xd0, 0x8a, 0x3c, 0x9a, 0xec, 0xf2, 0xbc, 0xf7, 0x7d,
    0xfe, 0x3c, 0x3e, 0x5b, 0xe7, 0xbb, 0x2d, 0x5e, 0x09, 0xbe,
    0xcb, 0x15, 0x39, 0xbd, 0xaa, 0x07, 0x85, 0xbd, 0x3e, 0x5b,
    0xe7, 0x3b, 0x12, 0xf3, 0xa1, 0x3d, 0xc0, 0xbb, 0xa7, 0xbd,
    0xd6, 0x6f, 0x4a, 0xbd, 0xc5, 0x68, 0xb0, 0xbd, 0x2d, 0x54,
    0xcd, 0x3d, 0xf7, 0x7d, 0x7e, 0x3c, 0x3e, 0x5b, 0xe7, 0x3d,
    0x8f, 0x92, 0x61, 0xbd, 0xd1, 0xc2, 0xc1, 0x3d, 0x3e, 0x5b,
    0xe7, 0x3d, 0x8f, 0x92, 0xe1, 0xbd, 0xb5, 0x61, 0x96, 0x3c,
    0xd6, 0x6f, 0xca, 0xbd, 0x5e, 0x7d, 0x93, 0xbd, 0x33, 0x01,
    0xd6, 0xbd, 0xcb, 0x15, 0x39, 0x3c, 0x01, 0xec, 0x87, 0x3d,
    0x63, 0x2a, 0x1c, 0xbd, 0xaa, 0x07, 0x05, 0x3d, 0x28, 0xa7,
    0xc4, 0x3c, 0x17, 0xa0, 0xaa, 0xbd, 0xf2, 0xd0, 0xf5, 0x3d,
    0x1d, 0x4d, 0x33, 0xbd, 0x12, 0xf3, 0x21, 0xbc, 0x2d, 0x54,
    0xcd, 0x3d, 0xf7, 0x7d, 0xfe, 0x3d, 0x69, 0xd7, 0xa4, 0x3d,
    0xf7, 0x7d, 0xfe, 0xbd, 0xb5, 0x61, 0x16, 0xbd, 0x8a, 0xe5,
    0xd8, 0xbd, 0x9a, 0xec, 0x72, 0x3d, 0x9a, 0xec, 0xf2, 0x3d,
    0x58, 0xd0, 0x0a, 0xbd, 0x9a, 0xec, 0x72, 0xbd, 0xcb, 0x15,
    0x39, 0x3b, 0x07, 0x99, 0x90, 0xbd, 0x5e, 0x7d, 0x93, 0x3d,
    0x49, 0xb5, 0xf8, 0x3d, 0x95, 0x3f, 0xea, 0xbd, 0x6e, 0x84,
    0xad, 0xbc, 0xe1, 0xc9, 0xdb, 0xbd, 0xaf, 0xb4, 0x8d, 0xbd,
    0xa0, 0x99, 0xfb, 0xbd, 0xb5, 0x61, 0x96, 0x3c, 0x6e, 0x84,
    0xad, 0xbc, 0x58, 0xd0, 0x8a, 0x3c, 0x6e, 0x84, 0xad, 0x3c,
    0x69, 0xd7, 0xa4, 0xbd, 0xcb, 0x15, 0xb9, 0x3b, 0xba, 0x0e,
    0x9f, 0x3d, 0xe1, 0xc9, 0xdb, 0x3d, 0x00, 0x00, 0x00, 0x00,
    0x28, 0xa7, 0x44, 0xbd, 0xf2, 0xd0, 0xf5, 0x3d, 0x53, 0x23,
    0x82, 0x3d, 0x69, 0xd7, 0xa4, 0x3d, 0x2d, 0x54, 0xcd, 0x3d,
    0x12, 0xf3, 0x21, 0x3d, 0x53, 0x23, 0x02, 0x3e, 0xd6, 0x6f,
    0x4a, 0xbd, 0xf7, 0x7d, 0xfe, 0x3c, 0x84, 0x38, 0x50, 0x3d,
    0xb5, 0x61, 0x96, 0x3c, 0xe1, 0xc9, 0x5b, 0x3d, 0x01, 0xec,
    0x87, 0x3d, 0x84, 0x38, 0x50, 0x3c, 0xc0, 0xbb, 0xa7, 0x3d,
    0xd6, 0x6f, 0xca, 0x3d, 0x58, 0xd0, 0x8a, 0xbd, 0x07, 0x99,
    0x10, 0xbd, 0xa0, 0x99, 0xfb, 0xbd, 0x3e, 0x5b, 0xe7, 0x3c,
    0xb5, 0x61, 0x96, 0x3d, 0x84, 0x38, 0xd0, 0xbc, 0x12, 0xf3,
    0x21, 0x3d, 0xf7, 0x7d, 0xfe, 0xbc, 0x7f, 0x8b, 0xc7, 0x3d,
    0xcb, 0x15, 0xb9, 0xbb, 0xaa, 0x07, 0x85, 0x3d, 0xcb, 0x15,
    0xb9, 0x3b, 0x28, 0xa7, 0xc4, 0x3c, 0x12, 0xf3, 0x21, 0x3c,
    0x3e, 0x5b, 0xe7, 0xbc, 0xa0, 0x99, 0xfb, 0xbd, 0xcb, 0x15,
    0xb9, 0xbb, 0xa0, 0x99, 0xfb, 0xbd, 0x6e, 0x84, 0xad, 0x3c,
    0xcb, 0x15, 0xb9, 0x3a, 0x17, 0xa0, 0xaa, 0xbd, 0x49, 0xb5,
    0xf8, 0x3d, 0x2d, 0x54, 0xcd, 0xbd, 0x12, 0xf3, 0x21, 0x3c,
    0x3e, 0x5b, 0xe7, 0xbc, 0xaa, 0x07, 0x05, 0x3d, 0x22, 0xfa,
    0xbb, 0xbd, 0x3e, 0x5b, 0x67, 0x3d, 0x1d, 0x4d, 0x33, 0x3d,
    0x12, 0xf3, 0xa1, 0xbd, 0x8f, 0x92, 0x61, 0xbd, 0xe1, 0xc9,
    0x5b, 0x3d, 0x53, 0x23, 0x82, 0xbd, 0xba, 0x0e, 0x9f, 0x3d,
    0x2d, 0x54, 0xcd, 0x3d, 0xec, 0x23, 0xed, 0x3d, 0x9a, 0xec,
    0x72, 0xbd, 0x53, 0x23, 0x02, 0xbe, 0xcb, 0x15, 0xb9, 0x3a,
    0xd6, 0x6f, 0xca, 0x3d, 0xec, 0x23, 0x6d, 0xbd, 0x63, 0x2a,
    0x1c, 0x3d, 0xcb, 0x15, 0xb9, 0xbc, 0x1d, 0x4d, 0xb3, 0x3d,
    0xaf, 0xb4, 0x8d, 0xbd, 0x84, 0x38, 0xd0, 0xbd, 0xb5, 0x61,
    0x96, 0x3d, 0x0c, 0x46, 0x99, 0x3d, 0x17, 0xa0, 0xaa, 0x3d,
    0x43, 0x08, 0xf0, 0xbd, 0x8f, 0x92, 0xe1, 0xbd, 0x8f, 0x92,
    0xe1, 0x3d, 0x12, 0xf3, 0xa1, 0xbc, 0xd6, 0x6f, 0xca, 0x3d,
    0xe7, 0x76, 0xe4, 0x3d, 0xaf, 0xb4, 0x8d, 0x3d, 0x8f, 0x92,
    0x61, 0xbd, 0x12, 0xf3, 0xa1, 0x3c, 0xba, 0x0e, 0x9f, 0xbd,
    0xc0, 0xbb, 0x27, 0xbd, 0xe1, 0xc9, 0xdb, 0xbc, 0x84, 0x38,
    0xd0, 0x3d, 0x69, 0xd7, 0xa4, 0xbd, 0x8f, 0x92, 0xe1, 0xbd,
    0x6e, 0x84, 0x2d, 0x3d, 0xf7, 0x7d, 0xfe, 0x3d, 0x8f, 0x92,
    0xe1, 0x3d, 0x58, 0xd0, 0x8a, 0xbd, 0xd6, 0x6f, 0x4a, 0xbd,
    0xf2, 0xd0, 0xf5, 0xbd, 0x3e, 0x5b, 0xe7, 0xbb, 0x63, 0x2a,
    0x1c, 0xbd, 0xb5, 0x61, 0x16, 0x3d, 0xd6, 0x6f, 0x4a, 0xbd,
    0xd1, 0xc2, 0xc1, 0xbd, 0xf2, 0xd0, 0xf5, 0xbd, 0x79, 0xde,
    0x3e, 0xbd, 0x49, 0xb5, 0x78, 0xbd, 0x12, 0xf3, 0xa1, 0xbd,
    0x79, 0xde, 0x3e, 0x3d, 0x28, 0xa7, 0xc4, 0x3c, 0x7f, 0x8b,
    0xc7, 0x3d, 0x28, 0xa7, 0xc4, 0xbd, 0x58, 0xd0, 0x0a, 0xbd,
    0x01, 0xec, 0x87, 0x3d, 0x27, 0xb1, 0x00, 0x3e, 0x8f, 0x92,
    0x61, 0xbd, 0xcb, 0x15, 0x39, 0x3b, 0x0c, 0x46, 0x99, 0xbd,
    0xd1, 0xc2, 0xc1, 0xbd, 0x74, 0x31, 0xb6, 0xbd, 0x49, 0xb5,
    0x78, 0xbd, 0xd1, 0xc2, 0xc1, 0x3d, 0x3e, 0x5b, 0x67, 0xbd,
    0x84, 0x38, 0x50, 0x3d, 0x2d, 0x54, 0xcd, 0xbd, 0xe7, 0x76,
    0xe4, 0x3d, 0x84, 0x38, 0x50, 0x3c, 0xb5, 0x61, 0x96, 0xbd,
    0x84, 0x38, 0xd0, 0xbd, 0x49, 0xb5, 0x78, 0xbd, 0x7f, 0x8b,
    0xc7, 0x3d, 0x1d, 0x4d, 0xb3, 0xbd, 0xe1, 0xc9, 0xdb, 0xbd,
    0x84, 0x38, 0x50, 0x3d, 0x27, 0xb1, 0x00, 0x3e, 0x3e, 0x5b,
    0x67, 0xbc, 0x27, 0xb1, 0x00, 0xbe, 0x07, 0x99, 0x90, 0xbd,
    0x7f, 0x8b, 0xc7, 0xbd, 0xaa, 0x07, 0x85, 0x3d, 0xc5, 0x68,
    0xb0, 0x3d, 0x58, 0xd0, 0x8a, 0xbb, 0x69, 0xd7, 0xa4, 0x3d,
    0x3e, 0x5b, 0xe7, 0xbd, 0xec, 0x23, 0x6d, 0x3d, 0x79, 0xde,
    0xbe, 0x3d, 0xf7, 0x7d, 0xfe, 0xbd, 0xcb, 0x15, 0x39, 0x3c,
    0x53, 0x23, 0x02, 0xbe, 0xe1, 0xc9, 0xdb, 0x3d, 0x12, 0xf3,
    0x21, 0xbd, 0xc5, 0x68, 0xb0, 0x3d, 0xf7, 0x7d, 0xfe, 0x3c,
    0xcb, 0x15, 0xb9, 0x3c, 0x12, 0xf3, 0xa1, 0xbc, 0x53, 0x23,
    0x82, 0xbd, 0x95, 0x3f, 0xea, 0x3d, 0x1d, 0x4d, 0xb3, 0x3d,
    0x27, 0xb1, 0x00, 0x3e, 0x33, 0x01, 0x56, 0xbd, 0x01, 0xec,
    0x87, 0xbd, 0xf7, 0x7d, 0xfe, 0x3d, 0x9a, 0xec, 0x72, 0xbd,
    0xb5, 0x61, 0x16, 0x3d, 0x9a, 0xec, 0x72, 0x3d, 0x7e, 0x95,
    0x03, 0x3e, 0x43, 0x08, 0xf0, 0xbd, 0x28, 0xa7, 0x44, 0x3d,
    0xc0, 0xbb, 0xa7, 0xbd, 0x01, 0xec, 0x87, 0xbd, 0x69, 0xd7,
    0xa4, 0x3d, 0xaf, 0xb4, 0x8d, 0xbd, 0xb5, 0x61, 0x16, 0x3d,
    0xec, 0x23, 0x6d, 0x3d, 0x79, 0xde, 0xbe, 0x3d, 0xd6, 0x6f,
    0x4a, 0xbd, 0x3e, 0x5b, 0xe7, 0xbb, 0x49, 0xb5, 0xf8, 0x3d,
    0x58, 0xd0, 0x0a, 0x3d, 0x12, 0xf3, 0xa1, 0xbd, 0xcb, 0x15,
    0xb9, 0xbd, 0x49, 0xb5, 0x78, 0x3d, 0x49, 0xb5, 0x78, 0xbd,
    0xf7, 0x7d, 0xfe, 0xbc, 0x63, 0x2a, 0x9c, 0xbd, 0x9a, 0xec,
    0x72, 0xbd, 0x95, 0x3f, 0xea, 0xbd, 0x33, 0x01, 0x56, 0xbd,
    0x8a, 0xe5, 0xd8, 0x3d, 0x58, 0xd0, 0x8a, 0xbc, 0xb5, 0x61,
    0x96, 0x3d, 0xb5, 0x61, 0x96, 0xbc, 0xe1, 0xc9, 0xdb, 0x3d,
    0xd6, 0x6f, 0x4a, 0xbd, 0xcb, 0x15, 0x39, 0x3b, 0x0c, 0x46,
    0x99, 0xbd, 0x28, 0xa7, 0xc4, 0x3d, 0x69, 0xd7, 0xa4, 0x3d,
    0xd6, 0x6f, 0xca, 0xbd, 0x1d, 0x4d, 0x33, 0xbd, 0x43, 0x08,
    0xf0, 0xbd, 0xc5, 0x68, 0xb0, 0x3d, 0xcb, 0x15, 0xb9, 0x3b,
    0x9a, 0xec, 0xf2, 0x3d, 0xe1, 0xc9, 0x5b, 0x3d, 0x07, 0x99,
    0x10, 0x3d, 0x22, 0xfa, 0xbb, 0x3d, 0xf7, 0x7d, 0x7e, 0xbc,
    0xd6, 0x6f, 0x4a, 0x3d, 0xf7, 0x7d, 0xfe, 0x3c, 0x3e, 0x5b,
    0xe7, 0xbd, 0x79, 0xde, 0xbe, 0xbd, 0x58, 0xd0, 0x8a, 0x3d,
    0x58, 0xd0, 0x8a, 0xbc, 0xf7, 0x7d, 0x7e, 0xbc, 0x8a, 0xe5,
    0xd8, 0xbd, 0xe1, 0xc9, 0x5b, 0x3d, 0xd6, 0x6f, 0xca, 0x3d,
    0xc5, 0x68, 0xb0, 0x3d, 0xcb, 0x15, 0xb9, 0x3c, 0x33, 0x01,
    0x56, 0xbd, 0x53, 0x23, 0x82, 0x3d, 0x28, 0xa7, 0x44, 0xbd,
    0x49, 0xb5, 0x78, 0xbd, 0x8f, 0x92, 0xe1, 0xbd, 0x63, 0x2a,
    0x9c, 0xbd, 0x28, 0xa7, 0xc4, 0x3d, 0x1d, 0x4d, 0x33, 0xbd,
    0x63, 0x2a, 0x1c, 0x3d, 0x9a, 0xec, 0xf2, 0x3c, 0x7e, 0x95,
    0x03, 0x3e, 0x6e, 0x84, 0x2d, 0x3d, 0x58, 0xd0, 0x8a, 0xbc,
    0x22, 0xfa, 0xbb, 0x3d, 0xcb, 0x15, 0xb9, 0xba, 0x49, 0xb5,
    0xf8, 0xbd, 0x00, 0x00, 0x00, 0x00, 0x28, 0xa7, 0xc4, 0x3d,
    0xa0, 0x99, 0xfb, 0x3d, 0xf7, 0x7d, 0x7e, 0x3d, 0x00, 0x00,
    0x00, 0x00, 0x12, 0xf3, 0x21, 0x3c, 0x84, 0x38, 0x50, 0x3d,
    0x79, 0xde, 0x3e, 0x3d, 0xf7, 0x7d, 0x7e, 0x3c, 0x63, 0x2a,
    0x9c, 0xbd, 0xaa, 0x07, 0x85, 0xbd, 0x3e, 0x5b, 0x67, 0x3d,
    0x9a, 0xec, 0xf2, 0x3c, 0xe1, 0xc9, 0x5b, 0x3d, 0x12, 0xf3,
    0xa1, 0x3c, 0x58, 0xd0, 0x8a, 0x3b, 0xaf, 0xb4, 0x8d, 0x3d,
    0xcb, 0x15, 0xb9, 0xbc, 0x3e, 0x5b, 0x67, 0xbd, 0x8a, 0xe5,
    0xd8, 0xbd, 0xcb, 0x15, 0xb9, 0xba, 0xe1, 0xc9, 0xdb, 0xbc,
    0xec, 0x23, 0x6d, 0x3d, 0xcb, 0x15, 0x39, 0xbc, 0x3e, 0x5b,
    0x67, 0x3d, 0x38, 0xae, 0xde, 0xbd, 0x58, 0xd0, 0x0a, 0xbd,
    0xec, 0x23, 0xed, 0x3d, 0xc0, 0xbb, 0xa7, 0xbd, 0x1d, 0x4d,
    0xb3, 0xbd, 0x28, 0xa7, 0xc4, 0xbc, 0xc0, 0xbb, 0xa7, 0xbd,
    0x63, 0x2a, 0x9c, 0x3d, 0x01, 0xec, 0x87, 0xbd, 0x22, 0xfa,
    0xbb, 0xbd, 0x27, 0xb1, 0x00, 0xbe, 0x0c, 0x46, 0x99, 0x3d,
    0x49, 0xb5, 0xf8, 0xbd, 0xaa, 0x07, 0x05, 0xbd, 0xc0, 0xbb,
    0xa7, 0x3d, 0xf2, 0xd0, 0xf5, 0x3d, 0x3e, 0x5b, 0x67, 0xbc,
    0x58, 0xd0, 0x8a, 0xbb, 0x95, 0x3f, 0xea, 0xbd, 0x49, 0xb5,
    0xf8, 0xbd, 0x84, 0x38, 0xd0, 0x3d, 0xe1, 0xc9, 0x5b, 0xbd,
    0xdc, 0x1c, 0xd3, 0x3d, 0xf7, 0x7d, 0x7e, 0x3c, 0xd6, 0x6f,
    0xca, 0x3d, 0x6e, 0x84, 0x2d, 0xbd, 0x3e, 0x5b, 0xe7, 0x3c,
    0xe7, 0x76, 0xe4, 0x3d, 0xec, 0x23, 0x6d, 0x3d, 0x63, 0x2a,
    0x9c, 0x3d, 0xec, 0x23, 0xed, 0x3d, 0xaa, 0x07, 0x05, 0xbd,
    0xb5, 0x61, 0x16, 0xbd, 0x49, 0xb5, 0x78, 0x3d, 0x95, 0x3f,
    0xea, 0xbd, 0x17, 0xa0, 0xaa, 0x3d, 0xec, 0x23, 0xed, 0x3d,
    0x3e, 0x5b, 0x67, 0x3c, 0x28, 0xa7, 0xc4, 0xbd, 0xd6, 0x6f,
    0x4a, 0xbd, 0xd6, 0x6f, 0xca, 0xbd, 0x43, 0x08, 0xf0, 0x3d,
    0x27, 0xb1, 0x00, 0x3e, 0x38, 0xae, 0xde, 0xbd, 0x49, 0xb5,
    0xf8, 0x3d, 0xb5, 0x61, 0x96, 0x3c, 0xcb, 0x15, 0xb9, 0x3b,
    0x49, 0xb5, 0xf8, 0x3d, 0xb5, 0x61, 0x16, 0xbd, 0x6e, 0x84,
    0xad, 0xbd, 0x53, 0x23, 0x02, 0x3e, 0xcb, 0x15, 0xb9, 0xba,
    0xaa, 0x07, 0x05, 0xbd, 0xd6, 0x6f, 0x4a, 0x3d, 0xc0, 0xbb,
    0x27, 0x3d, 0xcb, 0x15, 0xb9, 0x3b, 0xb5, 0x61, 0x96, 0x3c,
    0x58, 0xd0, 0x0a, 0x3d, 0xba, 0x0e, 0x9f, 0x3d, 0x3e, 0x5b,
    0xe7, 0xbd, 0xaa, 0x07, 0x85, 0x3d, 0x6e, 0x84, 0x2d, 0xbd,
    0x07, 0x99, 0x90, 0xbd, 0x1d, 0x4d, 0x33, 0xbd, 0x33, 0x01,
    0x56, 0xbd, 0xd6, 0x6f, 0x4a, 0xbd, 0x6e, 0x84, 0xad, 0x3d,
    0xd6, 0x6f, 0xca, 0xbd, 0x38, 0xae, 0xde, 0x3d, 0x33, 0x01,
    0x56, 0xbd, 0x3e, 0x5b, 0x67, 0x3c, 0x58, 0xd0, 0x0a, 0x3c,
    0x12, 0xf3, 0xa1, 0xbc, 0xaa, 0x07, 0x05, 0xbd, 0x63, 0x2a,
    0x9c, 0xbd, 0x8a, 0xe5, 0xd8, 0x3d, 0xd6, 0x6f, 0xca, 0xbd,
    0xaa, 0x07, 0x85, 0x3d, 0x53, 0x23, 0x82, 0xbd, 0x58, 0xd0,
    0x8a, 0xbd, 0x49, 0xb5, 0x78, 0x3d, 0xe1, 0xc9, 0x5b, 0x3d,
    0x8a, 0xe5, 0xd8, 0xbd, 0x22, 0xfa, 0xbb, 0xbd, 0x95, 0x3f,
    0xea, 0x3d, 0x53, 0x23, 0x02, 0xbe, 0xb5, 0x61, 0x96, 0xbd,
    0x28, 0xa7, 0xc4, 0x3c, 0x3e, 0x5b, 0xe7, 0x3c, 0x22, 0xfa,
    0xbb, 0x3d, 0xcb, 0x15, 0x39, 0x3b, 0x33, 0x01, 0x56, 0xbd,
    0x84, 0x38, 0xd0, 0xbd, 0x63, 0x2a, 0x1c, 0xbd, 0x1d, 0x4d,
    0xb3, 0x3d, 0x3e, 0x5b, 0xe7, 0x3b, 0x95, 0x3f, 0xea, 0x3d,
    0x12, 0xf3, 0x21, 0x3c, 0xaa, 0x07, 0x85, 0x3d, 0x27, 0xb1,
    0x00, 0x3e, 0x28, 0xa7, 0x44, 0xbd, 0x6e, 0x84, 0x2d, 0x3d,
    0x9a, 0xec, 0xf2, 0xbd, 0xc0, 0xbb, 0xa7, 0x3d, 0x8f, 0x92,
    0x61, 0xbd, 0x12, 0xf3, 0xa1, 0xbd, 0x33, 0x01, 0x56, 0x3d,
    0x84, 0x38, 0x50, 0xbd, 0xc0, 0xbb, 0x27, 0xbd, 0x53, 0x23,
    0x82, 0x3d, 0xcb, 0x15, 0xb9, 0x3a, 0x63, 0x2a, 0x1c, 0xbd,
    0x69, 0xd7, 0xa4, 0xbd, 0x6e, 0x84, 0x2d, 0x3d, 0x6e, 0x84,
    0x2d, 0xbd, 0xe7, 0x76, 0xe4, 0xbd, 0x12, 0xf3, 0xa1, 0x3c,
    0xcb, 0x15, 0xb9, 0x3c, 0x8a, 0xe5, 0xd8, 0x3d, 0xcb, 0x15,
    0xb9, 0xba, 0x63, 0x2a, 0x1c, 0x3d, 0x0c, 0x46, 0x99, 0x3d,
    0xf2, 0xd0, 0xf5, 0xbd, 0x84, 0x38, 0x50, 0x3d, 0xf7, 0x7d,
    0xfe, 0xbc, 0xe1, 0xc9, 0x5b, 0x3d, 0xdc, 0x1c, 0xd3, 0x3d,
    0x3e, 0x5b, 0x67, 0xbd, 0xc0, 0xbb, 0x27, 0xbd, 0x49, 0xb5,
    0xf8, 0xbd, 0xcb, 0x15, 0xb9, 0x3a, 0x3e, 0x5b, 0x67, 0x3d,
    0xaa, 0x07, 0x05, 0x3d, 0x49, 0xb5, 0x78, 0x3d, 0x3e, 0x5b,
    0x67, 0x3d, 0x58, 0xd0, 0x8a, 0xbd, 0xe1, 0xc9, 0xdb, 0xbc,
    0xec, 0x23, 0xed, 0x3d, 0xaa, 0x07, 0x05, 0xbd, 0x49, 0xb5,
    0x78, 0x3d, 0xcb, 0x15, 0xb9, 0x3d, 0x2d, 0x54, 0xcd, 0xbd,
    0x7e, 0x95, 0x03, 0x3e, 0x6e, 0x84, 0xad, 0xbd, 0xcb, 0x15,
    0xb9, 0x3b, 0x9a, 0xec, 0xf2, 0xbd, 0xf7, 0x7d, 0x7e, 0xbd,
    0x27, 0xb1, 0x00, 0xbe, 0x84, 0x38, 0xd0, 0xbd, 0xc0, 0xbb,
    0x27, 0xbd, 0x8f, 0x92, 0xe1, 0x3d, 0x49, 0xb5, 0x78, 0x3d,
    0x84, 0x38, 0xd0, 0x3c, 0xf2, 0xd0, 0xf5, 0xbd, 0x84, 0x38,
    0x50, 0xbd, 0x53, 0x23, 0x02, 0x3e, 0x00, 0x00, 0x00, 0x00,
    0xf2, 0xd0, 0xf5, 0xbd, 0x58, 0xd0, 0x0a, 0x3d, 0xf2, 0xd0,
    0xf5, 0xbd, 0x5e, 0x7d, 0x93, 0xbd, 0xaa, 0x07, 0x05, 0x3d,
    0xf7, 0x7d, 0x7e, 0xbc, 0x12, 0xf3, 0xa1, 0xbd, 0x28, 0xa7,
    0xc4, 0xbc, 0x6e, 0x84, 0xad, 0x3c, 0xd6, 0x6f, 0x4a, 0x3d,
    0xb5, 0x61, 0x16, 0xbd, 0x33, 0x01, 0x56, 0xbd, 0xdc, 0x1c,
    0xd3, 0xbd, 0xd6, 0x6f, 0xca, 0xbd, 0xb5, 0x61, 0x96, 0xbc,
    0x3e, 0x5b, 0xe7, 0xbd, 0x22, 0xfa, 0xbb, 0x3d, 0x38, 0xae,
    0xde, 0xbd, 0x3e, 0x5b, 0xe7, 0x3d, 0x12, 0xf3, 0x21, 0x3c,
    0xcb, 0x15, 0xb9, 0x3d, 0xc0, 0xbb, 0xa7, 0x3d, 0x12, 0xf3,
    0xa1, 0xbd, 0x6e, 0x84, 0x2d, 0x3d, 0xe1, 0xc9, 0xdb, 0x3c,
    0x58, 0xd0, 0x8a, 0xbb, 0x84, 0x38, 0xd0, 0xbc, 0xaa, 0x07,
    0x05, 0x3d, 0xec, 0x23, 0xed, 0x3d, 0x84, 0x38, 0xd0, 0x3d,
    0xaa, 0x07, 0x05, 0xbd, 0x79, 0xde, 0x3e, 0xbd, 0xd6, 0x6f,
    0x4a, 0xbd, 0x8a, 0xe5, 0xd8, 0xbd, 0x33, 0x01, 0x56, 0x3d,
    0x79, 0xde, 0xbe, 0xbd, 0x53, 0x23, 0x82, 0xbd, 0x1d, 0x4d,
    0xb3, 0xbd, 0xc0, 0xbb, 0xa7, 0xbd, 0x49, 0xb5, 0xf8, 0xbd,
    0x74, 0x31, 0xb6, 0x3d, 0xcb, 0x15, 0x39, 0x3d, 0x1d, 0x4d,
    0xb3, 0x3d, 0x6e, 0x84, 0x2d, 0xbd, 0xaa, 0x07, 0x85, 0x3d,
    0x3e, 0x5b, 0xe7, 0xbd, 0xcb, 0x15, 0x39, 0xbc, 0xf7, 0x7d,
    0xfe, 0xbc, 0x1d, 0x4d, 0xb3, 0x3d, 0xf7, 0x7d, 0x7e, 0xbd,
    0x1d, 0x4d, 0x33, 0x3d, 0x1d, 0x4d, 0x33, 0x3d, 0xec, 0x23,
    0xed, 0x3d, 0xf7, 0x7d, 0xfe, 0xbc, 0xcb, 0x15, 0xb9, 0x3a,
    0x01, 0xec, 0x87, 0x3d, 0x58, 0xd0, 0x8a, 0x3c, 0x9a, 0xec,
    0xf2, 0x3c, 0x28, 0xa7, 0xc4, 0x3c, 0x33, 0x01, 0x56, 0x3d,
    0x22, 0xfa, 0xbb, 0x3d, 0x63, 0x2a, 0x1c, 0xbd, 0xe1, 0xc9,
    0xdb, 0x3d, 0x84, 0x38, 0x50, 0x3d, 0x49, 0xb5, 0xf8, 0xbd,
    0xba, 0x0e, 0x9f, 0xbd, 0x63, 0x2a, 0x1c, 0xbd, 0x49, 0xb5,
    0xf8, 0x3d, 0x58, 0xd0, 0x0a, 0x3d, 0x33, 0x01, 0xd6, 0x3d,
    0x12, 0xf3, 0x21, 0x3c, 0xf2, 0xd0, 0xf5, 0x3d, 0x07, 0x99,
    0x10, 0xbd, 0xd6, 0x6f, 0xca, 0xbd, 0xd6, 0x6f, 0xca, 0xbd,
    0xe1, 0xc9, 0xdb, 0x3d, 0x6e, 0x84, 0xad, 0x3d, 0x58, 0xd0,
    0x8a, 0xbc, 0xcb, 0x15, 0x39, 0xbb, 0x79, 0xde, 0x3e, 0x3d,
    0xc0, 0xbb, 0x27, 0x3d, 0x12, 0xf3, 0xa1, 0x3d, 0xd1, 0xc2,
    0xc1, 0x3d, 0xc0, 0xbb, 0x27, 0xbd, 0xcb, 0x15, 0xb9, 0x3c,
    0xe7, 0x76, 0xe4, 0xbd, 0x95, 0x3f, 0xea, 0xbd, 0xcb, 0x15,
    0x39, 0xbd, 0xb5, 0x61, 0x96, 0xbc, 0x95, 0x3f, 0xea, 0x3d,
    0x7f, 0x8b, 0xc7, 0x3d, 0x63, 0x2a, 0x1c, 0xbd, 0xcb, 0x15,
    0xb9, 0x3c, 0xba, 0x0e, 0x9f, 0x3d, 0x74, 0x31, 0xb6, 0x3d,
    0xba, 0x0e, 0x9f, 0x3d, 0xaf, 0xb4, 0x8d, 0x3d, 0x43, 0x08,
    0xf0, 0xbd, 0x53, 0x23, 0x82, 0x3d, 0x28, 0xa7, 0xc4, 0xbc,
    0xd1, 0xc2, 0xc1, 0xbd, 0x95, 0x3f, 0xea, 0x3d, 0xf7, 0x7d,
    0x7e, 0xbd, 0xe1, 0xc9, 0xdb, 0x3c, 0x74, 0x31, 0xb6, 0xbd,
    0x63, 0x2a, 0x1c, 0x3d, 0x74, 0x31, 0xb6, 0xbd, 0x74, 0x31,
    0xb6, 0xbd, 0x12, 0xf3, 0x21, 0xbd, 0xcb, 0x15, 0xb9, 0xba,
    0x53, 0x23, 0x82, 0x3d, 0x38, 0xae, 0xde, 0xbd, 0x3e, 0x5b,
    0x67, 0xbd, 0xd1, 0xc2, 0xc1, 0x3d, 0x6e, 0x84, 0xad, 0xbc,
    0xaa, 0x07, 0x85, 0xbd, 0x7e, 0x95, 0x03, 0xbe, 0xcb, 0x15,
    0xb9, 0xbb, 0xc0, 0xbb, 0x27, 0xbd, 0x33, 0x01, 0x56, 0x3d,
    0xcb, 0x15, 0xb9, 0xbb, 0x58, 0xd0, 0x0a, 0xbc, 0x6e, 0x84,
    0xad, 0xbc, 0x3e, 0x5b, 0x67, 0xbc, 0x43, 0x08, 0xf0, 0x3d,
    0x28, 0xa7, 0x44, 0x3d, 0x69, 0xd7, 0xa4, 0xbd, 0xc0, 0xbb,
    0x27, 0xbd, 0x8a, 0xe5, 0xd8, 0x3d, 0xe1, 0xc9, 0xdb, 0x3d,
    0x84, 0x38, 0x50, 0x3d, 0xaf, 0xb4, 0x8d, 0x3d, 0x7e, 0x95,
    0x03, 0xbe, 0x07, 0x99, 0x90, 0x3d, 0xcb, 0x15, 0xb9, 0x3b,
    0x84, 0x38, 0x50, 0x3c, 0xaa, 0x07, 0x05, 0xbd, 0xb5, 0x61,
    0x96, 0x3c, 0x9a, 0xec, 0x72, 0xbd, 0x6e, 0x84, 0x2d, 0xbd,
    0xcb, 0x15, 0x39, 0xbd, 0x84, 0x38, 0x50, 0xbd, 0x2d, 0x54,
    0xcd, 0xbd, 0xd1, 0xc2, 0xc1, 0x3d, 0xa0, 0x99, 0xfb, 0xbd,
    0x3e, 0x5b, 0xe7, 0x3b, 0xcb, 0x15, 0xb9, 0xbc, 0xb5, 0x61,
    0x16, 0xbd, 0x12, 0xf3, 0x21, 0xbd, 0xf7, 0x7d, 0x7e, 0xbd,
    0xe1, 0xc9, 0x5b, 0x3d, 0xf7, 0x7d, 0x7e, 0x3d, 0x58, 0xd0,
    0x8a, 0xbd, 0x43, 0x08, 0xf0, 0xbd, 0x84, 0x38, 0x50, 0xbd,
    0x07, 0x99, 0x90, 0x3d, 0x9a, 0xec, 0xf2, 0xbc, 0x12, 0xf3,
    0xa1, 0xbd, 0xb5, 0x61, 0x16, 0x3d, 0x12, 0xf3, 0xa1, 0xbd,
    0xc5, 0x68, 0xb0, 0x3d, 0x1d, 0x4d, 0x33, 0x3d, 0xc5, 0x68,
    0xb0, 0xbd, 0x6e, 0x84, 0xad, 0xbd, 0xcb, 0x15, 0xb9, 0x3d,
    0x22, 0xfa, 0xbb, 0xbd, 0x38, 0xae, 0xde, 0x3d, 0x27, 0xb1,
    0x00, 0xbe, 0x28, 0xa7, 0xc4, 0x3c, 0x9a, 0xec, 0x72, 0x3d,
    0x07, 0x99, 0x90, 0xbd, 0x95, 0x3f, 0xea, 0x3d, 0xe1, 0xc9,
    0xdb, 0xbc, 0x43, 0x08, 0xf0, 0xbd, 0x12, 0xf3, 0x21, 0xbc,
    0x01, 0xec, 0x87, 0xbd, 0xcb, 0x15, 0xb9, 0x3d, 0x28, 0xa7,
    0xc4, 0x3d, 0xaf, 0xb4, 0x8d, 0x3d, 0x49, 0xb5, 0xf8, 0xbd,
    0x28, 0xa7, 0xc4, 0x3d, 0x3e, 0x5b, 0xe7, 0x3d, 0x63, 0x2a,
    0x1c, 0x3d, 0xaa, 0x07, 0x85, 0x3d, 0x22, 0xfa, 0xbb, 0x3d,
    0x95, 0x3f, 0xea, 0x3d, 0xe1, 0xc9, 0xdb, 0xbd, 0x8f, 0x92,
    0xe1, 0xbd, 0xec, 0x23, 0x6d, 0xbd, 0x12, 0xf3, 0x21, 0xbd,
    0x07, 0x99, 0x90, 0x3d, 0x01, 0xec, 0x87, 0xbd, 0xdc, 0x1c,
    0xd3, 0x3d, 0x28, 0xa7, 0xc4, 0x3d, 0xcb, 0x15, 0x39, 0xbd,
    0xc0, 0xbb, 0xa7, 0xbd, 0xcb, 0x15, 0x39, 0xbc, 0x01, 0xec,
    0x87, 0x3d, 0x3e, 0x5b, 0xe7, 0x3c, 0xb5, 0x61, 0x16, 0x3d,
    0xaa, 0x07, 0x85, 0xbd, 0x63, 0x2a, 0x9c, 0xbd, 0x63, 0x2a,
    0x9c, 0x3d, 0xc5, 0x68, 0xb0, 0xbd, 0xa0, 0x99, 0xfb, 0x3d,
    0x27, 0xb1, 0x00, 0x3e, 0xe7, 0x76, 0xe4, 0xbd, 0xf2, 0xd0,
    0xf5, 0xbd, 0xf7, 0x7d, 0x7e, 0x3d, 0xcb, 0x15, 0xb9, 0x3d,
    0x3e, 0x5b, 0xe7, 0xbb, 0x5e, 0x7d, 0x93, 0x3d, 0xaa, 0x07,
    0x05, 0xbd, 0xcb, 0x15, 0xb9, 0xbd, 0x3e, 0x5b, 0x67, 0xbc,
    0x9a, 0xec, 0xf2, 0x3c, 0xcb, 0x15, 0x39, 0xbd, 0x8a, 0xe5,
    0xd8, 0x3d, 0x53, 0x23, 0x82, 0xbd, 0x12, 0xf3, 0x21, 0xbd,
    0x58, 0xd0, 0x8a, 0x3b, 0x8f, 0x92, 0xe1, 0xbd, 0xf7, 0x7d,
    0xfe, 0x3c, 0xec, 0x23, 0x6d, 0xbd, 0x43, 0x08, 0xf0, 0xbd,
    0xd6, 0x6f, 0x4a, 0x3d, 0x33, 0x01, 0xd6, 0xbd, 0x79, 0xde,
    0xbe, 0xbd, 0x12, 0xf3, 0xa1, 0xbc, 0x84, 0x38, 0x50, 0xbc,
    0x84, 0x38, 0x50, 0xbd, 0x01, 0xec, 0x87, 0xbd, 0x2d, 0x54,
    0xcd, 0xbd, 0x28, 0xa7, 0xc4, 0xbc, 0x7f, 0x8b, 0xc7, 0xbd,
    0x6e, 0x84, 0xad, 0xbc, 0xd6, 0x6f, 0xca, 0xbd, 0x01, 0xec,
    0x87, 0xbd, 0x9a, 0xec, 0xf2, 0x3d, 0x53, 0x23, 0x02, 0xbe,
    0x58, 0xd0, 0x0a, 0x3d, 0x12, 0xf3, 0xa1, 0xbc, 0xe1, 0xc9,
    0xdb, 0xbd, 0xcb, 0x15, 0x39, 0x3d, 0xd6, 0x6f, 0x4a, 0x3d,
    0x58, 0xd0, 0x0a, 0x3c, 0xcb, 0x15, 0xb9, 0xbb, 0x22, 0xfa,
    0xbb, 0xbd, 0x07, 0x99, 0x10, 0xbd, 0x95, 0x3f, 0xea, 0x3d,
    0x79, 0xde, 0x3e, 0xbd, 0x49, 0xb5, 0xf8, 0xbd, 0x58, 0xd0,
    0x8a, 0xbd, 0x28, 0xa7, 0xc4, 0xbd, 0x84, 0x38, 0xd0, 0xbc,
    0xa0, 0x99, 0xfb, 0x3d, 0x38, 0xae, 0xde, 0x3d, 0xd6, 0x6f,
    0x4a, 0xbd, 0x28, 0xa7, 0xc4, 0x3c, 0x9a, 0xec, 0xf2, 0x3d,
    0x28, 0xa7, 0xc4, 0xbc, 0x8a, 0xe5, 0xd8, 0xbd, 0x5e, 0x7d,
    0x93, 0xbd, 0x58, 0xd0, 0x0a, 0x3c, 0x53, 0x23, 0x02, 0x3e,
    0x27, 0xb1, 0x00, 0x3e, 0x01, 0xec, 0x87, 0x3d, 0xe1, 0xc9,
    0xdb, 0xbc, 0x3e, 0x5b, 0x67, 0xbd, 0xd6, 0x6f, 0x4a, 0x3d,
    0xcb, 0x15, 0x39, 0x3c, 0x53, 0x23, 0x02, 0x3e, 0x58, 0xd0,
    0x0a, 0x3c, 0x12, 0xf3, 0xa1, 0x3d, 0x12, 0xf3, 0x21, 0xbc,
    0x58, 0xd0, 0x8a, 0xbd, 0x63, 0x2a, 0x9c, 0x3d, 0x33, 0x01,
    0x56, 0x3d, 0x38, 0xae, 0xde, 0x3d, 0x28, 0xa7, 0x44, 0xbd,
    0x07, 0x99, 0x10, 0x3d, 0xb5, 0x61, 0x16, 0x3d, 0x07, 0x99,
    0x10, 0x3d, 0xd6, 0x6f, 0x4a, 0x3d, 0x6e, 0x84, 0xad, 0xbc,
    0xf7, 0x7d, 0xfe, 0x3d, 0xd6, 0x6f, 0x4a, 0x3d, 0x0c, 0x46,
    0x99, 0xbd, 0xaa, 0x07, 0x85, 0x3d, 0xaa, 0x07, 0x05, 0xbd,
    0xec, 0x23, 0x6d, 0xbd, 0x8a, 0xe5, 0xd8, 0x3d, 0x01, 0xec,
    0x87, 0x3d, 0xcb, 0x15, 0xb9, 0x3b, 0x53, 0x23, 0x82, 0x3d,
    0x9a, 0xec, 0xf2, 0xbd, 0x49, 0xb5, 0xf8, 0xbd, 0x07, 0x99,
    0x10, 0xbd, 0x49, 0xb5, 0xf8, 0xbd, 0x6e, 0x84, 0x2d, 0x3d,
    0x3e, 0x5b, 0x67, 0xbc, 0x84, 0x38, 0xd0, 0x3d, 0x9a, 0xec,
    0xf2, 0xbd, 0x84, 0x38, 0x50, 0xbd, 0x63, 0x2a, 0x9c, 0xbd,
    0x00, 0x00, 0x00, 0x00, 0x84, 0x38, 0x50, 0xbd, 0xb5, 0x61,
    0x96, 0x3d, 0x1d, 0x4d, 0xb3, 0x3d, 0x3e, 0x5b, 0x67, 0xbc,
    0x3e, 0x5b, 0x67, 0xbd, 0x9a, 0xec, 0xf2, 0xbc, 0x8f, 0x92,
    0xe1, 0x3d, 0xf7, 0x7d, 0x7e, 0xbc, 0x49, 0xb5, 0xf8, 0xbd,
    0x3e, 0x5b, 0xe7, 0xbd, 0xdc, 0x1c, 0xd3, 0x3d, 0x58, 0xd0,
    0x8a, 0x3c, 0x2d, 0x5e, 0x09, 0x3e, 0xd1, 0xc2, 0xc1, 0xbd,
    0x3e, 0x5b, 0xe7, 0xbc, 0xf7, 0x7d, 0x7e, 0xbc, 0x28, 0xa7,
    0xc4, 0x3d, 0x3e, 0x5b, 0xe7, 0x3c, 0xe1, 0xc9, 0xdb, 0xbc,
    0x0c, 0x46, 0x99, 0xbd, 0x58, 0xd0, 0x0a, 0x3e, 0x3e, 0x5b,
    0x67, 0x3d, 0xcb, 0x15, 0x39, 0xbc, 0x6e, 0x84, 0xad, 0xbd,
    0x3e, 0x5b, 0xe7, 0xbd, 0x12, 0xf3, 0x21, 0x3c, 0x49, 0xb5,
    0x78, 0xbd, 0xf7, 0x7d, 0x7e, 0xbd, 0xcb, 0x15, 0xb9, 0x3c,
    0xf2, 0xd0, 0xf5, 0xbd, 0x12, 0xf3, 0x21, 0x3c, 0xe7, 0x76,
    0xe4, 0xbd, 0xc0, 0xbb, 0x27, 0x3d, 0x3e, 0x5b, 0xe7, 0xbb,
    0x49, 0xb5, 0xf8, 0xbd, 0x2d, 0x54, 0xcd, 0x3d, 0x00, 0x00,
    0x00, 0x00, 0x58, 0xd0, 0x8a, 0xbd, 0x12, 0xf3, 0xa1, 0xbd,
    0xe7, 0x76, 0xe4, 0x3d, 0x43, 0x08, 0xf0, 0xbd, 0x6e, 0x84,
    0x2d, 0xbd, 0x6e, 0x84, 0xad, 0xbd, 0x9a, 0xec, 0xf2, 0xbd,
    0x58, 0xd0, 0x0a, 0xbc, 0x53, 0x23, 0x82, 0xbd, 0xf7, 0x7d,
    0xfe, 0xbc, 0x74, 0x31, 0xb6, 0xbd, 0x12, 0xf3, 0xa1, 0x3d,
    0xc0, 0xbb, 0xa7, 0x3d, 0xe1, 0xc9, 0xdb, 0xbd, 0x33, 0x01,
    0xd6, 0x3d, 0xaa, 0x07, 0x05, 0xbd, 0xec, 0x23, 0xed, 0xbd,
    0xaa, 0x07, 0x05, 0xbd, 0xe1, 0xc9, 0x5b, 0x3d, 0x58, 0xd0,
    0x0a, 0x3e, 0x7f, 0x8b, 0xc7, 0x3d, 0xd1, 0xc2, 0xc1, 0xbd,
    0xcb, 0x15, 0x39, 0x3c, 0xb5, 0x61, 0x16, 0x3d, 0xcb, 0x15,
    0x39, 0x3c, 0x1d, 0x4d, 0xb3, 0xbd, 0x84, 0x38, 0xd0, 0xbd,
    0x5e, 0x7d, 0x93, 0x3d, 0xf7, 0x7d, 0x7e, 0x3d, 0x84, 0x38,
    0xd0, 0xbc, 0xcb, 0x15, 0x39, 0x3c, 0x07, 0x99, 0x90, 0x3d,
    0x3e, 0x5b, 0x67, 0x3c, 0x63, 0x2a, 0x1c, 0xbd, 0x33, 0x01,
    0x56, 0x3d, 0x63, 0x2a, 0x9c, 0xbd, 0x12, 0xf3, 0x21, 0x3d,
    0x58, 0xd0, 0x8a, 0x3d, 0x12, 0xf3, 0x21, 0x3c, 0x63, 0x2a,
    0x1c, 0xbd, 0xf2, 0xd0, 0xf5, 0x3d, 0xcb, 0x15, 0x39, 0x3d,
    0xc0, 0xbb, 0x27, 0x3d, 0x58, 0xd0, 0x8a, 0x3c, 0x58, 0xd0,
    0x0a, 0xbc, 0xc5, 0x68, 0xb0, 0xbd, 0x12, 0xf3, 0x21, 0xbd,
    0x5e, 0x7d, 0x13, 0x3e, 0x38, 0xae, 0xde, 0x3d, 0x12, 0xf3,
    0xa1, 0x3d, 0x33, 0x01, 0x56, 0xbd, 0x12, 0xf3, 0xa1, 0xbd,
    0xf7, 0x7d, 0xfe, 0x3c, 0xc0, 0xbb, 0x27, 0xbd, 0x01, 0xec,
    0x87, 0xbd, 0x63, 0x2a, 0x9c, 0x3d, 0x07, 0x99, 0x10, 0xbd,
    0xe1, 0xc9, 0xdb, 0xbc, 0xaa, 0x07, 0x05, 0x3d, 0x69, 0xd7,
    0xa4, 0x3d, 0xe1, 0xc9, 0xdb, 0x3d, 0x95, 0x3f, 0xea, 0x3d,
    0xcb, 0x15, 0xb9, 0xbc, 0x7f, 0x8b, 0xc7, 0xbd, 0x58, 0xd0,
    0x0a, 0xbc, 0x58, 0xd0, 0x0a, 0x3c, 0xb5, 0x61, 0x16, 0x3d,
    0xcb, 0x15, 0x39, 0xbb, 0xcb, 0x15, 0x39, 0x3c, 0x12, 0xf3,
    0x21, 0x3d, 0x49, 0xb5, 0x78, 0x3d, 0x28, 0xa7, 0xc4, 0xbc,
    0x84, 0x38, 0x50, 0xbd, 0xc0, 0xbb, 0xa7, 0x3d, 0xec, 0x23,
    0x6d, 0x3d, 0x84, 0x38, 0xd0, 0x3c, 0x12, 0xf3, 0xa1, 0xbc,
    0xcb, 0x15, 0xb9, 0x3b, 0x8a, 0xe5, 0xd8, 0x3d, 0x7f, 0x8b,
    0xc7, 0xbd, 0x6e, 0x84, 0x2d, 0x3d, 0xcb, 0x15, 0xb9, 0x3b,
    0xd6, 0x6f, 0xca, 0xbd, 0xaa, 0x07, 0x85, 0x3d, 0x8f, 0x92,
    0x61, 0xbd, 0xc5, 0x68, 0xb0, 0x3d, 0x58, 0xd0, 0x0a, 0x3e,
    0x3e, 0x5b, 0xe7, 0x3c, 0xc0, 0xbb, 0xa7, 0x3d, 0x9a, 0xec,
    0xf2, 0xbd, 0x12, 0xf3, 0x21, 0x3d, 0xe1, 0xc9, 0xdb, 0xbd,
    0x84, 0x38, 0x50, 0x3c, 0xba, 0x0e, 0x9f, 0xbd, 0xcb, 0x15,
    0xb9, 0xbb, 0x3e, 0x5b, 0xe7, 0xbd, 0xf7, 0x7d, 0x7e, 0xbc,
    0x27, 0xb1, 0x00, 0x3e, 0x3e, 0x5b, 0x67, 0xbd, 0xdc, 0x1c,
    0xd3, 0xbd, 0xcb, 0x15, 0x39, 0x3d, 0xb5, 0x61, 0x96, 0x3d,
    0xcb, 0x15, 0x39, 0xbc, 0xaa, 0x07, 0x85, 0xbd, 0x74, 0x31,
    0xb6, 0x3d, 0x1d, 0x4d, 0x33, 0x3d, 0x12, 0xf3, 0x21, 0x3c,
    0x8f, 0x92, 0xe1, 0xbd, 0x28, 0xa7, 0x44, 0x3d, 0xaa, 0x07,
    0x05, 0x3d, 0xaf, 0xb4, 0x8d, 0x3d, 0x3e, 0x5b, 0xe7, 0xbc,
    0xaa, 0x07, 0x85, 0xbd, 0xd5, 0x79, 0x06, 0x3e, 0x28, 0xa7,
    0x44, 0x3d, 0xd6, 0x6f, 0x4a, 0x3d, 0x79, 0xde, 0xbe, 0xbd,
    0x01, 0xec, 0x87, 0x3d, 0x38, 0xae, 0xde, 0xbd, 0x28, 0xa7,
    0x44, 0x3d, 0xe1, 0xc9, 0xdb, 0xbc, 0xf2, 0xd0, 0xf5, 0x3d,
    0x8f, 0x92, 0xe1, 0x3d, 0x58, 0xd0, 0x0a, 0xbc, 0x84, 0x38,
    0xd0, 0x3c, 0xf2, 0xd0, 0xf5, 0x3d, 0xaa, 0x07, 0x05, 0xbe,
